#version: 0.2
Ġ Ġ
ĠĠ ĠĠ
e s
i n
Ġ d
o n
e n
e r
Ġ a
r e
Ġ p
Ġ s
Ġ l
Ã ©
Ġ t
ĠĠ Ġ
Ġ c
a t
o r
o u
a n
i s
i t
a r
Ġd e
Ġ =
l e
en t
Ġ f
e t
u r
e l
Ġ m
i on
q u
a s
ĠĠĠĠ ĠĠĠ
Ġ n
a l
h e
Ġ in
r o
c t
r a
u n
Ġ re
d e
i m
u m
i l
o m
Ġt he
Ġ v
Ġ r
u t
in g
s e
s t
es t
i f
Ġ P
Ġ b
Ġ T
i c
ĠĠĠĠ ĠĠĠĠ
t e
Ġl a
) :
Ġ C
Ġ o
Ġ Ċ
at e
t h
ou r
is t
Ġ qu
Ġ Ã
g e
a m
Ġ et
Ġ g
c e
Ġl e
in t
u s
m ent
Ġa n
Ġ 1
Ġt o
Ġ "
at ion
i v
Ġ en
Ġ un
or t
Ġ '
ĠÃ ł
u l
ur n
Ġre t
i r
Ġ e
c h
er s
Ġ w
Ġp r
el f
Ġ L
as k
Ġf or
o t
Ġret urn
Ġp ro
y th
yth on
o l
p r
on t
Ġl es
Ġd es
Ã ¨
an t
ĠT ask
ĠĠĠĠ ĠĠĠĠĠĠĠ
it e
r i
or d
Ġo f
Ġs t
Ġ (
Ġ 2
Ġ S
ĠP ython
Ġ j
ct ion
p ort
i d
v e
- -
Ġ #
p l
i g
i e
ou s
Ġp ar
an s
Ġ if
r ing
Ġ A
Ġn um
o d
a p
a b
an d
de f
Ġ D
es s
o s
n e
as s
â Ģ
a d
m e
Ġan d
Ġ M
en d
u e
Ġc om
a c
Ġp our
im port
Ġ [
Ġc on
at a
a ge
qu e
Ġc h
am e
Ġm a
Ġ +
Ġ Ã©
i re
' ,
( )
l o
u x
Ġd u
p t
Ġs elf
Ã© s
Ġ F
ou t
Ġ h
Ġp l
Ġ 0
Ġs e
x t
in e
ul t
p ut
Ġt h
p e
r es
Ġa r
g ra
# #
Ġ I
d i
o de
Ġd Ã©
Ġ -
_ _
ro m
Ġ E
0 0
Ġ B
v er
) )
Ġqu e
re ate
t er
a g
c i
Ġun e
o p
Ġl ist
Ġ is
Ġ G
le ment
" ,
gra m
Ġ N
âĢ Ļ
Ġ R
Ġpr int
Ġ est
l ist
Ġn e
Ġs ur
Ġ :
Ġd ans
pr int
i b
. .
n um
an ge
Ġnum b
s elf
ou n
Ġ= =
Ġ i
Ã© e
( '
f or
u re
( "
i z
Ġa l
e m
i le
i que
Ġf a
Ġ y
Ġa u
Ġpro gram
a y
u b
Ġa s
in d
l ass
w ord
Ġ el
Ġqu i
Ġst ring
k e
Ġ 3
a u
ĠC reate
en ce
l es
Ġ W
a in
Ġr es
Ġ {
it h
= =
Ġr Ã©
a is
i er
Ġde f
' :
' )
-- --
n ame
ur s
Ġp as
Ã© r
od el
Ġr ange
ĠĠĠĠĠĠĠĠ ĠĠĠĠĠĠĠ
o c
an ce
Ġ Â
im e
st ring
Ġe x
ap p
iv en
it Ã©
Ġth at
Ġpl us
i en
ar t
Ġt r
h t
Ġd ata
f f
oun t
u p
en er
Ġv ous
Ġg iven
e d
Ã ª
ve c
Ġ O
d u
Ġ J
Ġ ou
d ata
Ġ V
o re
c om
' ]
Ġ import
al l
Ġw ord
Ġc ont
on e
o w
Ġl en
Ġn ot
ra y
ic e
" )
un ction
c on
a it
r ite
Ġ2 0
t re
Ġ us
iv e
ĠĠĠĠĠĠĠĠ ĠĠĠĠĠĠĠĠ
Ġ 5
t o
ĠĠ Ċ
v al
Ġa vec
a il
ar r
Ġc e
g et
e ct
ab le
a ct
o st
ar d
er t
on s
a ut
i ent
f rom
and om
Ġt ra
ener ate
" :
Ġ 4
" "
## ##
Ã¨ re
ite m
st r
ion s
Ġ U
for m
Ã¨ s
Ġ x
en s
Ã© t
en c
Ġs c
ou p
an g
p ar
[ '
iz e
ke y
in s
Ġv al
ation s
o ir
Ġ il
Ġf unction
Ġnumb er
e x
o g
el le
c c
qu es
as e
ĠÃ© t
l en
p le
at h
Ġp e
Ġa v
ĠL e
o is
il l
Ġj e
Ġ H
Ġa p
a v
i es
ig n
ar y
Ġma x
p on
p er
Ġres ult
Ġel se
Ġ <
c k
] ,
] )
Ġs er
Ġw ith
p h
Ã© es
Ġs u
o b
Ġf rom
ĠW rite
is e
qu est
or s
Ġnumb ers
Ġar r
Ġpar t
a ire
te xt
app end
c l
Ġ or
a ce
c he
il le
Ġ+ =
Ġg r
p s
m b
it s
Ġ %
a le
Ġc lass
Ġs ont
ou v
Ġch ar
Ġ on
on n
Ġ *
Ġ ra
) ,
Ġp re
Ġw h
r ue
e xt
on g
Ġp er
is s
p os
ri pt
Ġcom m
Ġ !
p ro
et te
m a
Ã© c
i x
ur r
un e
Ġa d
Ġr andom
ot re
a ir
di ct
Ġc ode
el s
ĠL a
te d
Ġ >
Ġc ol
ĉ ĉ
Ġ ent
lo w
Ġal l
t ra
Ġin put
Ġ ro
Ġc l
Ġ out
i al
a ux
Ġ1 0
m odel
i de
t est
num b
ar g
i p
s er
Ġs on
g th
ĠD e
a k
Ġm e
Ġm in
c ul
Ġa ut
Ġ __
== ==
Ã© ri
ur l
j ect
ĠÂ «
Ġb e
.. .
de x
t t
ac k
y pe
Ġ20 1
) .
ent s
it ion
r Ã©
Ġt w
Ġn ous
ĠĠĠĠ Ċ
---- ----
our s
Ġs um
Ġ im
Ġm o
Ġma is
Ġ 6
c lass
Ġar ray
Ġs o
Ġ[ ]
Ġm odel
ĠĠĠĠ Ġ
Ġst r
ess ion
Ã ´
u st
Ã© n
Ġt out
ĠÂ »
Ġv otre
Ġ /
ar ch
Ġg et
m o
Ġre quest
u es
Ġc he
ĠL es
e ur
Ġa ux
Ġm at
Ġ 8
t r
a ch
al cul
g or
ĠE n
word s
p re
Ġ k
Ġw e
Ġe lement
a re
Ġp ass
i ques
s on
Ġf ind
if f
al se
Ġ âĢ
ĠI n
l d
p o
p y
Ġin t
Ġd is
o o
m es
pl it
Ġm et
u i
u se
Ġp os
ĠI l
it y
Ġne w
2 0
an c
ur es
g r
us s
s c
i Ã¨re
Ġtw o
m at
Ġd i
ant s
v el
Ġo b
] [
Ġs ent
Ġword s
Ġ 7
pon se
m in
im ent
Ġs a
Ġ it
Ġs h
Ã© l
Ġn ame
ic ation
ad d
m et
u is
ar n
Ġt em
i el
as t
Ġt ext
( ):
en se
Ġm on
Ġc ount
ce pt
Ġs et
= '
o y
tra in
res ult
u d
Ã §
Ġn p
ou te
Ġ key
m l
Ġus ing
a i
* *
Ġs y
Ġ ?
I n
ĠG enerate
Ã ł
ig ht
/ /
er n
#### ####
ou ve
Ġ item
ut il
Ġd at
Ġpro du
ic h
in it
w e
ag es
Ġg enerate
Ġp ython
Ġb ien
c ess
1 0
o in
E R
or ted
on ne
f t
ar i
v en
in put
if y
ub l
Ã© g
Ġe m
ver t
Ġf il
Ġ }
Ġc ette
v ent
ĠN one
Ġp o
ment s
Ġp ers
air es
ĠT rue
alcul ate
Ġ 9
ĠÃ ª
Ġs ub
Ġs ort
Ãª me
r y
Ġ K
ĠT he
Ġus er
ĠĠĠĠĠĠĠĠ ĠĠĠĠĠĠĠĠĠĠĠ
Ġ |
s um
Ġcom me
Ġa cc
urr ent
ĠC h
ĠF alse
E S
Ġcom p
ib le
Ġfa it
Ġs i
c ount
Ġval ue
it le
ĠC om
ess age
b o
al is
re t
Ġsc ript
__ (
oo k
he ad
at ure
Ġen c
O N
Ġin ter
Ġ" ""
Ġd iff
s plit
Ġ Q
p ath
ction s
Ġl ong
vel op
s ent
ver se
Ġm ar
ar ray
Ġfa ire
Ġ ont
Ġm od
h od
Ġel if
= "
uss i
Ġt ak
Ġa ct
il d
er r
re e
f ile
s et
at es
ic es
Ġa m
Ã ¢
ĠÃª tre
e c
ri b
Ġad d
Ġa re
Ġwe b
ĠJ e
k en
numb ers
Ġs es
Ġt est
( [
Ġ1 9
Ġtak es
Ġc ar
gor ith
Ã© d
Ġp h
gorith m
ĠdÃ© c
b re
m ain
ro w
an de
l y
am ple
i ers
ma x
Ġpe ut
: //
c s
ĠP ar
end re
Ġcon s
ĠD es
j et
in dex
i Ã¨
ch ar
Ġent re
Ġto t
d ate
el l
ĠC on
Ġo pt
f it
ri x
ĠÃ©t Ã©
) ):
enc es
ĠR e
v ice
R e
Ġchar act
Ġf in
ct or
Ġtra v
Ġcon f
Ġal gorithm
Ġout put
Ġb y
Ġen d
el les
re qu
Ġle ur
Ġrequest s
r an
Ġc reate
c ol
Ġ{ }
s h
Ġa ussi
Ġtr Ã¨s
re ad
ay er
o i
Ġs k
Ã ®
c ont
ut e
id ent
Ġc an
Ġs ol
Ġm Ãªme
Ġ up
w w
Ã´ t
Ġpe u
d s
Ġpr Ã©s
S t
le ct
mo ve
d it
I N
Ġd o
Ġ ,
Ġtr ans
u le
val ue
Ġche ck
if ier
Ġar g
ut ion
h is
pr Ã¨s
Ġc o
Ġc alculate
Ġd ire
le arn
m p
it u
len gth
Ġb o
Ġf ile
Ġtot al
ir st
im um
ut put
n er
us er
at s
f ind
te g
ction ary
Ġc urrent
Ġs p
Ġde ux
Ġn om
ĠS t
==== ====
Ġc es
Ġc or
Ġe ff
l er
ou ld
v ie
util is
S T
it Ã©s
ĠP our
Ġas s
a lement
t es
Ġm an
on ac
Ġin to
Ġstring s
on c
r it
Ġpr Ã©
Ġre c
form at
com m
ĠP r
numb er
ay s
oun d
onac ci
ib onacci
Ġde v
Ġro w
Ġe xt
Ġwh ile
oc k
at or
Ġs ans
ch er
iz er
Ġf on
Ġtra in
Ġf l
Ġan n
Ġe ach
an te
str u
Ġsk learn
ic k
ig ne
"" "
T he
ht ml
Ġlen gth
Ġap p
Ġv is
er e
Ġa tt
ain s
um ent
o ire
ĠâĢ ĵ
Ġr Ã©s
le t
Ġmet hod
l ab
ĠO utput
f in
ent e
Ġ X
is se
Ġ use
Ġp d
our n
Ġpo int
ĠB e
Ġf ol
t ype
c ript
u g
Ġs up
" ]
âĢ ¦
or m
Ġt ous
Ġs im
ic i
Ġo p
Ġa t
Ġv ers
Ã »
er y
Ġd ist
Ġ2 00
ig h
Ġpre m
Ġl ine
m y
T rue
item s
is te
Ġan s
ĠU n
ri g
al es
c es
Ġs orted
Ġcon c
Ġob ject
f o
lo g
Ġs pe
Ġpers onn
Ġl ib
E N
Ġt er
ter n
in es
Ġnot re
ht t
-------- --------
1 2
n ode
A T
Ġ ord
Ġv os
Ġa b
ĠP ro
a ine
Ġt ime
l ine
Ġp ubl
r ic
Ġin teg
Ġin st
Ã¨ me
ab les
p ass
Ġs ou
Ġra p
" .
Ġl o
ĠQ u
el lo
' '
r andom
Ġb as
al itÃ©
num s
Ġqu el
Ġelement s
d b
Ġj son
iv er
P I
t itle
a x
in k
um n
Ġsh ould
L E
pl ace
le ction
t ime
Ġar t
s ize
Ġfol low
d d
our ce
o f
as et
u it
R E
Ġ Y
Ġdi ctionary
Ġ1 2
il s
s ort
pl ic
ou ver
Ġreturn s
Ġ he
an n
ult i
00 0
Ġ1 5
a ction
Ġsent ence
Ġt e
ar get
Ġin dex
b l
s ub
Ġp et
cs v
f e
Ġpro f
Ġpos s
Ġde p
Ġ! =
b in
ro s
qu ence
r ance
j oin
Ġf e
ĠA n
or k
am p
at us
b le
pl ication
at ive
ac c
Ġ _
a ve
Ġc ert
Ġth is
Ġc el
E n
Ġp ol
Ġ z
ra ct
Ġv o
r ess
A R
enc y
e lement
r r
Ġr est
d es
Ġper met
Ġfollow ing
ĠS e
ro p
Ġv ie
st art
Ġst art
at t
Ġel le
ĠDes ign
] :
() )
Ġ )
Ġof f
Ġre pr
Ġcon n
Ġres ponse
ate ur
ĠA l
[ :
ĠC e
y s
com p
o pt
or te
Ġpr ime
ĠrÃ© g
a ient
Ġre verse
Ġtem ps
ĠÃ© g
Ġl og
Ġl ui
Ġc ap
iel d
Ġd iv
v ir
anc es
i qu
Ġ `
Ġg ra
ap e
Ġpass word
Ġval ues
'] )
ĠE t
j son
Ġd onn
at ures
Ġs al
at ing
Ġ .
c ode
i a
s p
Ġin d
Ġgr and
Ġm er
if ul
Ġl et
Ġc rÃ©
Ġtrav ail
Ã© ra
it es
aut iful
Ġc as
Ġo s
Ġ[ '
A N
ol og
b er
e z
Ġre m
Ġ{ '
Ġy ou
f il
Ġre l
Ġn on
et s
Ġt ype
te m
Ġso ci
st ate
Ġf irst
L ist
Ġt ou
Ã ¹
Ġse arch
pe ct
######## ########
it er
Ġn ode
Ġwh ich
Ġfor m
Ã© v
Ġt able
mb re
as se
Ġ1 1
Ġ utilis
lo ad
S oup
c o
to ken
autiful Soup
Ġp ort
e urs
u ild
r ou
Ġp age
Ġb et
Ġre move
res ponse
ins i
Ġse con
re f
op ul
om e
Ġd ern
Ġlong est
we en
Ġn os
Ġa c
pass word
ent re
ect or
ac y
l ib
ĠA r
ĠBe autifulSoup
S E
l st
ic le
a ult
Ġs ite
Ġs ous
Ġde m
ie ux
sent ence
am b
) ]
o ice
Ġcon vert
a h
int er
Ġh as
Ġav ant
ĠM ar
ĠDe velop
arg s
r and
Ġ id
l u
ust om
Ġm es
Ġenc ore
< /
Ġnum py
th er
rr or
or ld
ĠF l
Ġl oc
i o
u er
Ġv ari
a de
[ "
m s
Ġm al
Ġtem p
Ġg Ã©n
Ġact iv
Ġbet ween
v ers
' .
g an
er as
] .
' s
ĠV ous
ie u
ĠÃ©g alement
es p
U R
Ġcharact ers
ind ow
Ġf ois
re q
ie d
t k
pl es
ne w
rig ht
b y
Ġw ill
po se
a ke
Ġp ath
Ġ1 00
it ial
e ar
ĠN ous
cript ion
Ġc ou
ĠĠĠĠĠĠĠĠ Ċ
tr ans
ro ot
Ġst ore
Ġn o
bo ard
Ġl ors
m essage
Ġnom bre
est ion
ĠF rance
ur acy
a que
Ġ1 8
Ġp ost
Ġd onc
ch es
ab ase
end ant
Ġo Ã¹
Ġd oc
Ãª t
d ir
Ġm ulti
er c
ĠÃ© v
E T
Ġopt im
lo c
is ion
cept ion
ne xt
Ġpart ic
Ġsy st
Ġprodu ct
I T
en ir
Ġdat aset
o ci
ran Ã§
Ġm Ã©
Ãª te
ow n
ag n
o le
Ġpar am
is es
in st
mb le
ĠE l
O R
Ġem ail
Ġ2 5
Ġt u
Ġcon st
Ġp at
ĠU ne
ĠM ais
j our
u v
ĠP l
c le
E rror
d er
Ġ ;
Ġmo ins
Ġun ique
i Ã©
ne ment
Ġ3 0
g h
ver age
Ġprint s
Ġc our
Ġn ouv
Ã©t Ã©
if s
Ġs Ã©
sc ore
Ġle urs
Ġord er
ĠS i
ĠO n
Ġa insi
lo at
Ġ ...
im es
m er
Ġm essage
ret urn
d f
iv re
Ġm ont
il itÃ©
ang u
ve z
Ãª tre
pr ession
ch n
. _
j ours
Ġd ont
e e
d a
ro is
or es
iv es
en u
s u
h or
pon d
Ġf ra
ex ample
Ġa g
A L
av oir
Ġcl ient
Ġmax imum
Ġm y
o h
i pe
ic al
y n
val ues
H ello
Ġdep uis
Ġt oute
ĠdÃ© b
2 1
ĠĠĠĠĠĠĠĠ ĠĠĠĠĠĠĠĠĠĠĠĠĠĠĠ
Ġpro v
am es
Ġa prÃ¨s
Ġd ro
Ġbo ard
Ġin form
ĠE x
Ġpl ace
po int
Ġper m
Ġcomm un
arg est
Ġ url
Ġch o
du ct
pos ition
end er
Ġcom ment
Ġb on
Ġmon de
r iver
Ġj u
d at
ĠR et
Ġim p
Ã©l Ã©
ĠT his
Ġsent iment
N ame
Ġla b
pl ot
is ation
requ ency
od y
gra ph
ĠĠĠĠĠĠĠĠ Ġ
Ġ head
u al
Ġt arget
Ġre g
Ġpr ix
ate d
R O
St ring
re ct
Ġd ou
ra w
Ġcont re
ouve z
5 0
o v
al y
Ġdiff Ã©r
Ġn ouve
ĠPr int
1 00
f ig
Ġd ate
if ication
pl oy
ĠA u
le ft
gr ession
os s
Ġs oup
Ġd om
if ic
3 0
Ġ â
ob ject
u de
y p
ra it
on d
ien s
Ã© ment
Ġ[ "
pl ay
ĠA PI
Ġ1 6
err or
string s
Ġj our
id er
Ġinteg ers
Ġro ot
r en
ĠÃ §
A C
Ġav oir
Ġb l
ang o
ĠĠĠĠĠĠĠĠĠĠĠĠĠĠĠĠ ĠĠĠĠĠĠĠĠĠĠĠĠĠĠĠĠ
ri d
ra in
C h
Ġ its
Ġp uis
' ))
c re
lab el
Ġmat rix
Ġcharact er
Ġso it
Ġtou jours
enc ont
ĠÃ©t ait
Ġf r
ch oice
ww w
um ents
ant es
p art
Ġr un
ct ure
Ġser a
ĠÃ§ a
ro me
u el
Ġcom pr
i k
l tk
Ġ' __
__ ':
Ġbe au
1 1
Ġa ge
low er
od es
ĠD ans
¿ ½
ï ¿½
Ġd Ã©s
a z
Ġ one
w ork
Ġv ol
ou l
Ġg re
et er
Å ĵ
U n
lo b
pro cess
Ġfon ction
ut es
r un
Ġp ouv
pl t
ĠC he
Ġan y
I d
Ġp ays
Ġfor mat
ranÃ§ ais
Ġl ow
Ġb ase
Ã ī
Ġpro jet
.. ..
in fo
2 5
ate gor
t on
Ġ1 3
in ary
T his
vie w
a Ã®
es ent
er a
r ans
Ġex p
Ġcol umn
htt ps
Ġval id
pre dict
h er
al ind
Ġf em
pr ime
ate urs
Ġtout es
ĠĠĠĠ ĠĠ
ap i
and as
Ġsu is
ĠÃ ī
Ġdat abase
Ġpro cess
Ġte chn
1 9
es se
Ġpr in
Ġ< =
Ġcomm and
lo ck
s orted
Ġnum s
Ġma in
is me
Ġ1 4
q l
Ġd ur
Ġcel a
w rite
Ġv er
ĠÃ© l
ĠdÃ© f
ĠÃ© c
et ime
ĠFl ask
m ar
r on
Ġser vice
Ġext ract
Ġsecon d
f er
b e
ne ct
Ġme ille
Ġh tt
Ġc al
' }
Ã©ri e
ĠdÃ© velop
Ġquel ques
Ġal ors
Ġposs ible
: ",
T I
Ġs ign
end ing
iÃ¨ res
f r
Ġm ost
re g
pr ice
pr ise
ec ute
Ġb re
r at
Ġc v
Ġop en
ot o
Ġp u
a ur
pos it
Ã© ci
ĠÃ© qu
ĠI f
Ġre v
Ġpr Ã©c
'] ,
N um
s s
se arch
il les
D E
ci p
Ġj ou
Ġc r
Ġn ltk
e au
======== ========
Ġp opul
ie urs
Ġspe c
Ġt itle
ar s
Ġaut res
ĠprÃ©s ent
ig its
Ġ1 7
ĠS a
iz ed
ession n
Ġf ac
cont ent
Ġs om
Ġfa ut
l ay
ag ne
le m
I S
Ġ" "
Ġo cc
ĠG et
t s
c oup
id th
Ġlib r
Ġlo op
at er
Ġcont ain
Ġh aut
Ġin cl
Ġv i
mat rix
iv ers
ain es
Ġclass ify
A n
val u
Ġv ra
Ġen f
Ġcom put
p age
Ġ( '
em ail
Ġp andas
Ĥ ¬
ist es
Ġcon se
', '
A r
Ġj us
ot al
en ame
op y
p ons
Ġ" ,
oh n
ĠT o
Ġ &
ĠC l
d ist
us es
r ir
Ġr ight
con n
Ġm ois
m an
Ġl st
st atus
Ġmethod s
Ġin s
Ġre ad
par am
d ition
ri e
Ġpre dict
om m
Ġ/ /
ou pe
Ġil s
urs or
j ango
rou gh
n es
Ġs m
ĠF ibonacci
] ]
Ġh ave
Ġv e
Ġ @
Ġa ff
ag er
Ġcont in
Ġr en
t ag
Ġo ver
el on
Ġ \
lo se
ĠdÃ© j
Ġm em
Ġth rough
en ne
Ã© m
Ġsc ra
6 4
ra me
v es
Â ł
Ġc ours
pt y
Ġb r
Ġr encont
e p
Ġpro pos
out put
Ġche z
el se
M L
ĠrÃ© alis
stru ct
is on
Ġg u
Ġf am
v ices
c or
w ith
Ġre qu
P ro
Ġp ouvez
) ;
A l
Ġgr at
angu age
( (
ustom er
an a
= ['
par ser
Ġpartic ul
alind rome
it al
Ġav ait
I D
Ġcomp te
1 5
Ġle ft
Ġpubl ic
Ġper form
par se
Ġdo it
V al
s ite
Ġvers ion
Ġcomm on
cc ess
Ã©r ation
Ġc oup
Ġtr y
arn ing
A B
r er
b ook
P O
m d
w h
Ġ* *
Ġc ent
Ġprof essionn
Ġcont ent
f l
ĠRet urn
Ġs itu
Ġ" )
or y
Ġpeu vent
qu al
u di
ent es
ol d
ry pt
um e
im al
Ġb ut
Ġh igh
Ġre cher
Ġl igne
Ġj ust
Ġbre ak
i or
et ers
Ġex cept
Ġm om
Ġv a
Ġex em
ac he
ire d
Ã©ri eur
Ġe ven
Ġo ther
Ġch aque
Ġg ar
ul es
le urs
Ġm us
as h
Ġ} ,
b ack
ens ion
t able
Ã© qu
Ġqu ery
Ġarg s
Ġt f
Ġb es
Ġsu iv
Ġsy s
Ġm arch
ac es
dit ions
en ant
Ġv oir
con om
ĠH T
Ġaut re
Ġjus qu
Ġin v
ke d
Ã© p
aut res
qu are
Ġbeau coup
d iv
itial ize
is er
Ġresult s
htt p
Ġ Z
id Ã©
U T
2 00
Ġsc ore
S e
ow els
T o
Ġdire ct
Ġt rois
Ġ[ [
vir on
! !
re quest
Ġpl ayer
Ġplus ieurs
Ġinst all
Ġpersonn es
val id
Ġma ch
Ġap plication
v i
ĉĉ ĉ
Ġprodu its
Ã¨ res
Ġj ours
C lass
Ġma g
Ġt ree
Ġdi ct
ĠN e
Ġch au
Ġqu and
ro l
pro duct
Ġf ranÃ§ais
Ġpos ition
Ġpoint s
Ġcom ple
Ġor gan
ib les
at ique
c ent
Ġf ound
ais s
2 2
Ġ ident
if ied
ĠdÃ©j Ãł
ing s
Ġitem s
Ġto ken
() ,
Ġpart ie
Ġfil ter
a f
h ost
Ġo per
ul l
ector izer
g er
Ġc all
ĠÂ» ,
or g
iss ion
Ġmat ch
Ġl argest
Ġcont act
Ġlet ter
ang er
e ment
Ġ --
ic ense
e ff
Ġc urr
Ġth an
ang le
Ġg en
Ġpol it
Ġa ur
am ment
di ctions
Ġpar f
v ous
er ci
ĠC ette
A S
Ġd it
ĠA p
te ment
Ã» t
ĠEl le
Ġch er
m ap
oc c
Ġl Ã©g
Ġm ill
1 4
p te
ĠL o
ite ment
() .
Ġprem ier
Ġm id
v is
3 2
oun ter
ĠPar is
1 6
Ġc re
Ġm ot
Ġstr u
ĠI m
Ġt our
ĠT h
Ġ2 4
Ġpar se
R L
Ġs ouv
Ġto p
om me
di an
p ost
Ġ5 0
En ter
Ġinter n
c al
Ġcom pl
Ġt it
Ã©c ess
lay ers
d oc
g l
s o
t ail
Ġl ink
ĠChe ck
ud ent
is h
Ġn ive
st ri
E x
Ġp y
Ã¨ ne
qu ery
] ))
Ġb inary
u ff
Ġs ais
de d
Ġw rite
Ġl im
Ġs avoir
s ol
re z
D ata
Ġn Ã©cess
Ġma ke
Ã© f
il es
Ġme an
3 4
ation al
Ġsim ple
Ġthe ir
z er
} ,
isse ment
im ize
Ġmo y
m id
ph one
. "
I C
ar ies
i us
(' /
le te
r oute
t otal
jour d
l i
en v
h ui
Ġf er
Ġqu alitÃ©
Ġa fin
Ġpr ice
Ġne xt
Ġpos it
Ġmom ent
Ġa verage
te ct
ĠU RL
Ġinteg er
Ġc ur
l ong
ap t
ri que
o ff
Ġs ens
Ġm ode
m i
Ġc et
Ġc alcul
me an
Ġ ess
p ert
Ġch ange
ip p
Ġd f
ri er
ĠÂ» .
Ġqu estion
Ġb s
Ġd est
Ġs ource
Ġnouve au
Ġh and
N one
ab il
", "
con fig
Ġprem iÃ¨re
tre e
Ġse quence
Ġmo i
b ot
Ġs ize
rand int
Ġn ature
Ã© b
Ġpet it
F alse
ĠdÃ© p
an e
ig in
all y
s y
Ġex ist
R es
Ġfa ctor
ct u
le ur
p ython
Ġb ou
Ġav ons
Ġpro bl
Ġactiv ation
Ã ¯
Ġc ro
Ġgr ande
Ġd b
e b
Ġn et
Ġtr ouver
ĠW orld
Ġe ur
Ġsu ite
Ġt Ã©lÃ©
Ġg o
gr oup
Â »
Ġma int
U S
Ġg ame
9 9
Ã©c ur
k ens
Ġnouv elle
qu ent
Ġ2 1
Ġh ist
3 3
A M
an k
ra ge
Ġmais on
k eras
le d
Ġex pl
ex ecute
bo x
plic ates
Ġ> =
f ix
ille t
I L
m Ã©
pl y
ou d
j e
Ġs ame
ci i
d is
le v
m on
comm on
o te
model s
Ġsp Ã©ci
f ace
ĠÃ Ģ
Ġsou h
ĠĠĠĠĠĠĠĠ ĠĠĠĠĠ
ĠN ode
Ġy our
Ġmer ge
Ġprin cip
Ġa vez
Ġann Ã©es
orm al
Ġ2 2
Ġst ock
pr i
Ġcom b
key s
1 8
Ġl ast
p op
Ġres pons
ĠDe f
ĠP re
f Ã©r
Ġt rop
Ġmin imum
Ġf loat
Ġj ourn
yp es
Ġexem ple
Ġlist s
mp lement
F ield
Ġt ag
t res
ĠC an
L e
Ġc ir
et ch
C T
id es
ord s
ĠD river
( {
e y
g es
Â °
Ġvis ite
re place
Ġimp lement
c urrent
---------------- ----------------
iz ation
Ġdoc ument
E D
ab l
Ġv oy
Ġmach ine
Ġdef ault
Ġp le
ol s
Ġt k
Ġconf ig
ien ne
1 7
n ent
Ġpl an
Re gression
ant Ã©
Ġuse d
Ġl i
Ã¨ le
Ġfl ask
itu de
ent ion
ĠdÃ©velop pe
ĠI N
Ġdist ance
o pe
Ġ- =
Ġdat etime
Ġch ois
Ġcont ains
` `
u f
r ange
Ã´ le
Ġf requency
ard s
Ġeff ic
Ġre f
T P
se quence
c r
Ã¢ ce
P ar
f req
pre d
Ġup date
S ON
di a
Ġare a
Ġ esp
Ġeff et
ĠSa int
Ġdiff er
Ġl Ãł
ĠC ar
ult ure
g re
p at
Ġb ook
im age
. __
Ġmet tre
Ġ' ''
Ġenf ants
p ack
Ġv ille
a ff
di us
Ã§ on
O M
g ative
ĠF unction
Ġs n
ut ions
ĠO pt
Ġser vices
Ġinform ation
c ursor
ĠI mplement
Ġrap ide
Ġnive au
in ation
Ġit er
o x
im er
J ohn
Ġd im
se z
Ġgr oupe
Ġmar k
els ius
as cii
Ġp endant
ur al
Ġm ieux
amb da
T ype
{ }
D e
el p
Ġb onne
ĠA ut
Ã©r er
a gram
trans form
Ġfe atures
Ġh ab
Ġ20 20
end s
an ci
Ġqu ick
Ġrecher che
us h
Ġh um
id x
Ġrap port
ic les
qu er
iÃ¨ me
Ġsyst Ã¨me
di ction
Ġcol or
Ġadd ress
Ġpr endre
r Ã©e
Ġm Ã©t
au se
Ġpouv oir
te mp
oir es
ser ver
Ġ2 8
Ġweb site
Ġsol ution
sh ape
Ġdern ier
t ant
ĠdÃ© l
ubl ic
ĠCon struct
m od
Ġdem ande
D ense
Ġpart ir
C H
c lose
L O
ĠCom ment
Ġcel ui
element s
Ġem pty
Ġau c
Ġap pr
Ġgr oup
Ġle arning
Ġacc uracy
m ing
s l
ĠV al
Ġs elon
um er
" ))
m ail
ur er
c ending
l ink
Ġdro it
Ġen v
Ġdiv is
re c
Num ber
Ġsup er
Ġc i
ĠÃ© lect
Ġr ien
ĠdÃ© m
0 1
Ġb est
Ġvo it
Ġfactor ial
Ġs Ã©cur
Ġ201 8
ord er
Ġdef ine
vers ion
id s
h ist
ĠD E
res h
ath er
ph ab
Ġline ar
t d
t ml
iel ds
ĠDef ine
igh b
r ate
b ody
00 00
Ġdem and
Ġe u
Ġf ont
Ġap pro
requ ent
Ġpers onne
am ais
fe atures
b ug
c reate
Ġres pect
g ment
l im
Ġm is
our ces
ric s
Ġclass ifier
Ġon ly
al ance
Ġh tml
s pe
le ase
ĠS h
Ġc Ã´t
ĠL icense
Ġp a
c ret
Ġcon stru
ĠÃ© p
op en
Ġbas ed
z e
Ġde c
ct eur
Ġ u
le ctions
Ġk eras
Ġm ise
Ġ19 9
)) )
ex p
2 4
Ġl ieu
Ġf ourn
Ġart icle
b res
ĠS er
ra p
l ambda
Ġm ath
ĠS u
Ġf ibonacci
Ġdis play
ĠHT ML
ĠP h
ol l
Ġ4 0
met hod
ĠdÃ©b ut
t el
Ġnot amment
y le
ar ge
P r
o se
Ġrepr Ã©s
v ol
ri Ã¨re
all est
e k
Ġf ut
c ase
t out
[ -
Ġd p
an v
Ġcontain ing
Ġp orte
Ġ( "
Ġ201 9
Ġ ici
Ã© ro
Ġ' '
################ ################
Ġpr iv
Ġan t
res se
Ġfa is
1 3
Ġv Ã©r
Ġj amais
ch ild
Ġr ou
Ġcol lect
Ġaut om
E lement
Ġg ener
Ġce ux
Ġacc ess
an che
Class ifier
ic s
O T
Ġup per
ĠC alculate
ud es
Ġb out
Ġpopul ation
PO ST
Ġa ch
ut ton
Ġb Ã©n
Ġam ount
Ġhtt p
Ġsouv ent
f low
og le
iÃ¨re ment
Ġs ci
Ġ' ,
st em
Ġc ost
ĠT est
valu ate
b ase
ĠĠĠĠĠĠĠĠ ĠĠĠĠ
in ked
Ġet c
Ġob t
comm and
Ġpl t
t ers
at tr
he it
char act
Ġrepr esent
Ġprov ide
w are
Ã©t ait
ĠrÃ©g ion
x x
Ġ' )
Ġpar ent
Ġ201 7
ven ir
Ġmod ule
EN T
Ġc ad
** **
Ġt ask
ion n
S er
Ġl anguage
Ġ2 3
c ell
Ġdonn Ã©es
add ress
Ġsub string
Ġthe m
con nect
ren heit
r ent
Ġr is
Ġâ Ĥ¬
U N
in Ã©
ĠM on
E L
Ġp iÃ¨
up per
ĠIn itialize
olog ie
. ")
che ck
u c
Ġt ri
iv ent
ĠgÃ©n Ã©r
Ġser ver
ĠC ont
Ġlibr ary
A P
s oup
per ature
Ġo dd
C on
: ]
od ing
reg ist
Ġlab els
s v
Ġen se
ir es
ig it
ro y
Ġret r
ĠĠĠĠĠĠĠĠĠĠĠĠĠĠĠĠ ĠĠĠĠĠĠĠĠĠĠĠ
Ġje u
acc uracy
pr ises
o it
un es
m ine
Ġde tect
de c
ight s
a ite
ĠF or
Ġrest e
iv ot
Ġt ant
ar m
qu oi
' ):
: -
Ġprodu it
om b
Ġbes oin
onne ment
ĠrÃ©s ult
ĠI ter
ci es
Ġfem mes
Ġstru cture
Ġdis pon
w idth
le x
le tt
') .
R I
Ġen g
Ġcert ains
as ter
Ġre ce
ine ar
Ġor igin
Ã¨ mes
Ġcom bin
at if
Ġst ate
act iv
aut h
ĠÃ© conom
Ġparam eters
o int
Ġl iv
ĠT rans
un c
Ġjson ify
Ġ $
ĠA dd
Ġpro c
Ġins ert
av a
ar es
Ã¨ g
res pond
Ġc at
gr ess
inst ance
iv id
ad er
Ġy ear
Ġpro m
ĠdÃ© cl
ĠJ SON
ens or
Ġsom mes
Ġs ql
ct ob
Ġv owels
Ġm il
ĠB uild
Ġcho ix
Ġmarch Ã©
d igits
ĠT rain
Ġcon ditions
lob al
Ã© ch
ĠC ode
Ġdist rib
g en
Ġst ack
ob il
Ġra ise
ĠG u
n p
u elle
E M
I ON
p ol
Ġcont r
N e
Ġ2 6
y ear
Ġc ustomer
Ġm Ã©d
Ġatt rib
Ġdiff ic
Ġa ction
ĠdÃ©c ouv
n et
re lu
ar ity
Ġdes s
er v
Ġth en
Ġopt ions
Ġvra iment
Âł Âł
Q L
Ġex pression
Ġph oto
ctor y
phab et
Ġfor me
ĠrÃ© du
Ġcor respond
w indow
t arget
le an
ur ation
ue il
Ġfa ce
f irst
ib ilitÃ©
i ra
al let
l a
ĠM ake
Ġb uild
fil ter
Ġpolit ique
r c
it t
enc ode
Ġ201 6
C O
Ġm ore
Ġse u
n ot
f ul
long est
er g
pl ayer
c d
o k
des cription
ĠM ont
ĠdÃ©veloppe ment
Ġfon d
Ġs antÃ©
Ġt ake
ĠU s
Ġ0 00
re move
se lection
Ġmin utes
: ',
i ct
r ation
c ap
o e
} )
Ġb ar
port s
Ġgr Ã¢ce
ut ations
erc ase
Ġc ategor
ĠA vec
ĠU se
A ut
g rid
G ET
ale ur
s ource
ĠC ount
Ġsy n
p ted
up le
Ġf ab
ploy ee
Ġt err
I R
f unction
Val ue
j out
point s
f act
art icle
su ite
n ames
U L
Ġst at
Ã©ri ence
Ġint Ã©r
sc ores
c at
ĠrÃ© se
sh ow
pte mbre
def ault
V ectorizer
et tes
Ġpro t
ctob re
6 7
Ġcon ne
t op
qu Ã©
4 0
Ġp ens
Ġb i
Ġpat tern
w o
ass ert
ub e
Ġse ul
ĠT ra
Ġ20 21
C ont
Ġ error
Ġcomput e
Ġfil es
ES S
c ost
s m
est ions
Ġus ers
ĠJe an
Ã¨ te
token ize
is c
ĠP ost
Ġp Ã©ri
ĠT out
Ġfa ct
ust er
! ")
Ġass oci
Ġann Ã©e
o ogle
ph er
ĉĉ ĉĉ
we b
vent ion
on es
is Ã©
st d
if i
ĠIl s
col umn
iv al
le z
Ġeff ect
Ġc elle
ĠâĢ Ķ
ce mbre
ĠS plit
Ġj ob
op Ã©
it aire
et her
Ġbas ic
Ġdes cription
ĠÃ© ch
ow er
[: ,
comp ile
Ġc ell
ĠC es
Ġrencont re
Ġim age
r ont
ur g
ĠIter ate
i an
Ġsur tout
form ation
Ġh elp
q r
ut f
Ġau jourd
alis ation
u its
Ġpro pose
Ġ Ð
ĠC el
Ġqu ant
ĠA prÃ¨s
and ard
min ist
own load
Ġcho se
anv ier
6 0
ve mbre
ock et
age ment
Ġa x
ou se
Ġap par
Ġs out
ers on
Ġ2 7
ipp et
Ġn i
) -
in f
Ġg ros
Ġreverse d
g ame
er ie
n ing
un ctu
ES T
Ġgre ater
i ge
ense mble
r il
Ġ util
Ġtrav ers
Ġposit ive
z z
mb l
ser v
Ġen viron
ind re
ry pted
user name
Ġf it
aut re
Ġin f
ĠrÃ© c
Ġr ess
ĠG r
Ġc a
stri p
') ,
Ġsoci Ã©tÃ©
Ġs plit
Ġser ont
Ġcount s
ais e
Ġfam ille
P ython
Ġh y
Ġsu ff
ĠbÃ©n Ã©f
Ġd ir
Ġlab el
Ġ ]
ĠR Ã©
d im
f loat
w args
Ġs au
ĠL inear
end u
line ar
quent ial
Ġ es
Ġpas se
ob j
Ġsu jet
n ess
y c
Ġju in
Ġcontin ue
i ance
ĠS et
Ġcomp Ã©t
re verse
ail le
lett ers
Ġs oir
st ack
ie z
Ġse ptembre
ĠsÃ©cur itÃ©
de p
Ġme dian
Ġan agram
Ġtrain ing
t il
ve ctor
Ġh ost
Ġs Ã©rie
ĠI t
Ġim m
f rame
ĠF ind
ci al
Ġl arge
Ġla y
ĠS ur
Ġfa Ã§on
Ġ201 5
( __
= (
Ġhe ures
Ã «
Ġcor rect
A D
A p
ĠcÃ´t Ã©
al ys
ĠT r
d el
Ġp air
Ġ' '.
iss ance
l ig
er ne
it ies
Ġre place
Ġmodel s
F ile
ins ert
Ġarg uments
F or
Ġs ing
ĠprÃ©s ident
pat tern
de z
Ġwh ether
wh ile
Ġv it
l ast
fil ename
dat aset
Ġv idÃ©
Ġset s
un ique
fer ence
re d
ab ilitÃ©
Ġma i
Ġform ation
Re quest
ĠÃ©qu ipe
C om
as ion
om ial
ĠL og
Ġcon nect
8 0
S S
IN G
fe ature
c ours
d en
sent iment
l ines
o ot
im p
ĠâĢ ¦
Ġarg ument
v oir
Ġpr is
ot os
Ġcor ps
Ġ6 0
C l
Ġ rom
Ġpet ite
Ġseu lement
c ategor
Ġcom pt
ation ale
Ġtr ouve
Ġ3 2
Ġ< /
Ã© h
for me
ĠdÃ© cembre
ill er
Ġman iÃ¨re
Ġsn ippet
os es
Ġpre dictions
A G
Ġl at
Ġla iss
Ġpar ser
g enerate
ĠCom m
Ġapp el
Ġp ay
Ġcons id
Ġfem me
Ġgrat uit
' t
c ore
ist ance
av ant
M ax
Ġe qual
Ġnombre ux
Ġde lete
Ġo ctobre
Ġ' .
ub ble
ah renheit
Ġf ix
par ent
Ġvari ables
T ree
Ġc rit
ĠAr t
Ġs quare
Ġwh ere
let ter
ĠOpt imize
m ment
Ġf req
Ġclient s
t f
Ġg ouver
b ar
Ġqu estions
Ġno vembre
Ġc ase
Ġb log
ge ment
Ġoptim ize
d ay
Ġju illet
Ġrequ ired
Ġf ort
Ġsyst em
Ġb at
ĠLo ad
Ġmar s
r u
Ġret our
ĠCon vert
us ion
Ġtw e
Ġpr Ã¨s
Ġsql ite
Ġpro b
ĠA cc
Ġcad re
Ġmin ist
ann Ã©e
Ġpass er
Ġm ort
ĠA d
Ġtr ue
plot lib
l at
el ine
c ut
Ġch ild
ĠE m
Ġvari able
en gth
iqu er
) +
Ġpro ch
Ġcol lections
Ġk m
ĠreprÃ©s ent
Ġj anvier
ĠA N
Ġfil m
ic he
Ġhtt ps
om mes
Ġsi Ã¨
0 5
el lement
tail s
Ġ" ))
h at
Ġc amp
n a
Ġc u
d ire
Ġp ivot
Ġw indow
ĠĠĠĠ ĠĠĊ
us r
are a
Ġac cept
x ml
Ġ201 4
h and
h ello
t ask
or gan
ra ction
im g
s ys
[: :-
charact ers
Ġcon v
Ġmo ve
Ġth ree
ive ment
cl ient
dist ance
op h
Ġmo vie
Ġc m
pl ate
param s
ĠB l
i um
Ġb ois
ĠM od
ĠrÃ© pond
ma ine
ĠdiffÃ©r ents
Ġl ang
Ġin di
Ġcom par
cl f
Ġp ack
Ġw as
Ġra ison
Ġs w
Ġentre prises
anc er
p en
Ġv ert
char s
an y
arg er
ĠĠĠĠĠĠĠĠĠĠĠĠĠĠĠĠ Ċ
č Ċ
pl oi
ĠD Ã©
Ġou v
I M
en g
if ique
Ġchau ff
Ġnature l
r ice
Ġmat Ã©ri
Ġkey s
Ġconc ern
Ġlibr aries
al itÃ©s
Ã¨ ve
Ġin c
Ġprogram me
ier re
att en
g rÃ©
r ist
u y
Ã©r ic
loc al
Ġsitu ation
Ġc entre
Ġgra ph
en cies
ic iel
ĠM o
Ġ{ "
Ġl ivre
ĠC ol
ĠIn tern
Ġrow s
Ġlet ters
inst all
n ow
am ples
A F
Ġel les
lab els
n o
aut Ã©
Ġsm allest
D F
d iff
M e
am ount
ac itÃ©
aÃ® tre
t en
Ġc ulture
entre prise
uv re
Ġd igits
Ġg estion
Ġdiffer ent
Ġas sez
Ġchar ge
E X
Ã´t el
d o
Ã©v rier
ĠE xt
Ġtrav aux
Ġart icles
Ġdonn er
re l
g ing
Ġp alindrome
Ġcom pos
Ġse maine
ĠN o
================ ================
ĠP er
Ġpr esent
Ġdev ant
Ġst op
ĠG iven
Ġtr ouv
Ġincl ude
m ost
ĠL ist
count s
Ġma j
m Ãªme
ist ic
Ġimport ant
Ġcomp are
ĠCom p
Ġinform ations
Ġreg ard
Ġp an
ĠLinear Regression
o Ã»t
aly zer
Ġqu ot
ĠgÃ©n Ã©ra
ĠO r
I I
f requency
Ġv en
ĠĠĠ Ċ
d om
Ġque ue
ĠG ener
Ġspec ific
9 0
t a
Ġd Ã¨s
ĠM e
ag it
f ield
Ġpar ce
H O
il i
ĠâĢ ¢
Ġre conn
__ )
Ġmat plotlib
t he
Ġind ivid
Ġpartic ip
Ġth Ã©
u il
Ġr ender
Ġb el
aut hor
Ġt on
Ġb ack
Ġ201 2
Ġjust e
vir onnement
4 2
T rans
Ġfunction s
Ã©l ior
Ġmes ure
Ġprobl Ã¨me
ter min
m ode
Ġa f
ĠĠĠĠĠĠĠĠ ĠĠĠĠĊ
Ġ" __
up date
Ġpre v
e ux
ac cess
Ġser ait
ĠY ou
â Ĥ¬
ent iel
Ġch at
Ã©r Ã©
S um
Ġg ens
Ġpro fit
and id
se ction
di o
C ol
w er
Ġn ormal
Ġsouh aite
t ing
t xt
cess ary
Ġeur opÃ©
l ing
ot s
Ġse en
__ ":
aiss ance
unctu ation
c ur
Ġd onne
ob ile
Ġn ames
Ġrem pl
Ġp ense
ĠS y
ĠprÃ© v
it ter
te ction
sub string
Ġe qu
N B
ch Ã©
ĠE ur
Ġacc ord
Ġhe ight
D ict
Ġt ensor
Ġpr atique
Ġv ue
Ġs Ã»
ang es
d jango
Ġje unes
Ġcomm erci
In put
'' '
Ġv u
Ġpr es
ĠÃª tes
ĠPl us
view s
abil ity
Ġfe ature
C E
Ġan ci
Ġoff re
f s
ĠĠĠĠĠĠĠĠ ĠĠ
process ing
Ġnouv elles
Ġspec ified
he d
Ġent er
Ġdern iÃ¨re
ien nent
Ġenc ode
ver y
Ġph one
du ction
sc ript
Ġfe u
p ay
de bug
ft ware
Ã¢ t
in er
Ġch amp
] +
Ġtra itement
or ation
ine d
tem ps
w s
Ġun der
Ġopt ion
Ġw idth
ĠS ort
ay es
mat ch
Ġgar ant
p opul
ĠI D
S ub
u ve
opt ions
Ġvoy age
o ins
ur ance
pr ess
ĠB on
e ven
pe d
ĠCel a
m n
re ment
In t
ĠprÃ© par
Ġr oute
Ġv ou
. ,
3 5
f ibonacci
Ã¨ tres
loc ation
Ã« l
Ġcar act
Ġf ich
ĠdÃ©cl ar
ĠÃī t
Ġt Ãªte
Ġde l
Ã©ri que
te x
id f
Ġwh en
Ġqu at
al er
Ġqu oi
ient s
Ġrest aur
Ġr Ã¨g
Ġan im
Ġav ril
iss ant
Ġsa ve
he ight
Ġe ux
tr y
F rame
d ing
Q U
Ġph otos
Ġlo ad
Ġcomple x
Ġnet work
iss ing
Ã©t ique
Ġpart en
Ġlors que
l in
Ġv endre
" ])
U M
Ġser ies
T O
r al
Ġst udent
Ġdire ctory
Ġquel que
Ġb ot
Ġav is
Ġf Ã©vrier
com e
use ment
Ġhigh est
Ġmaint enant
Ġen umer
Ġstr at
Ġinst ance
eff ic
qu el
ĠD i
Ã© gr
ut Ã´t
plic ate
Ġtit re
ol es
] ])
te ur
Ġmar que
Ġrap p
O r
Ġto kens
app le
( -
E Y
Ġb lock
RO M
Ġlim it
Ã§ u
Ġfra is
-- -
Ġsu ch
Ġbo th
Ġtensor flow
M at
Ġs us
'] .
Ġsup port
d ess
Ġt en
as es
Ġcons omm
ĠIm port
Ġs av
Ġm ari
im est
du plicates
Ġmeille ur
L I
Ġc ook
Ġsu cc
Ġb elle
Ġc art
ĠP as
ĠCom me
col or
Ġcolumn s
Ġenumer ate
Ġl oi
utilis ation
L a
ir t
ard in
UR L
T ime
T ext
Ġn av
ut ation
ĠM an
T est
Ġe vent
Ġpers on
Ġloc ation
Ġscra per
Ġident ify
K ey
Ġwith out
f ields
t ent
ap plication
ĠQ ue
ĠmÃ©d ic
Ġst atus
Ġcomm enc
uer re
Ġmill ions
ighb ors
er ence
a verage
Ġex ample
Ġdiv ers
âĢ Ŀ
n ov
s end
P l
Ġc uis
Ġab out
ist er
ĠV o
12 34
Ġp ot
Ġ8 0
cor rect
c urr
on ce
uel lement
ol ution
Ġ2 9
b all
n el
ĠPro gram
ĠnÃ©cess aire
Ġv ector
Ġne ed
Ġentre prise
Ġjourn Ã©e
} ')
it i
ĠD Ã©c
our se
Ġg l
Ġpour rait
Ġ201 0
Ġdivis ible
= [
= {
j ob
er ve
ra dius
Ġmem bres
Ġm en
Ġ1 000
Ġpro pri
ble m
Ġc it
Ġhas h
e vent
at ives
Ġdo ivent
ĠP ublic
ab el
ĠM al
ĠUs ing
se d
Ġne cessary
arg ument
Ġcap ital
Ġac comp
Ã©qu ipe
Ġs port
H e
de vice
Ġse in
di ctionary
dat etime
Ġcont ra
Ġrapide ment
au d
O P
3 7
4 5
b an
Ġal phabet
ĠRe ad
Ġsol ve
Ġprovide d
du c
Ġaut hor
Ġvi ol
Ġc andid
Ġaut our
Ġlink s
! "
R AN
Ġpour ra
ĠE dit
ong o
er re
ĠM y
qr t
g s
in a
Ġhab it
pr im
Ġpl ais
k wargs
ĠP art
U ser
Ġin itial
Ġv ente
que ue
o ther
Ġau gment
S et
Ġs at
ĠC or
p alindrome
Ġsu ccess
Ġsp Ã©c
ĠCount Vectorizer
S ER
Ġloc al
b lock
ĠN otre
ĠW eb
. """
s al
qu ares
Ġpl utÃ´t
Ġmoy en
hist oire
H T
Ġcar te
AT E
Ġcal led
Ġch oses
po ch
Ġperm utations
ĠÃ©t aient
ĠdÃ©couv rir
- %
Ã¢ te
row s
c a
d le
os est
ais se
ill age
Ġ201 1
put e
: ")
s ide
u Ã©
ous s
Ġcour se
Ġorgan is
Ġob lig
ag s
Ġprodu ction
Ġhe ure
Ġcert aines
Ġmulti ple
0 2
Ġc ause
ord in
Ġpass Ã©
ĠĠĠĠĠĠĠĠ ĠĠĠĠĠĠ
Ġen suite
at oire
Ġpour quoi
alis te
Ġad apt
Åĵ ur
L ength
Ġmal ad
ĠpÃ©ri ode
Ġanagram s
6 5
a ctions
k s
o ie
p endant
Ġd igit
ĠS on
vert ure
Ġl iste
ĠD ieu
c opy
ĠâĢ ľ
St atus
Ġutilis er
py plot
l Ã©
ĠÃ©t udi
alys is
A cc
ner g
ĠsÃ© lection
ĠdiffÃ©r entes
# !
o ol
le vel
Ġfil ename
ĠÃ©qu ip
popul ation
h um
t at
ĉ Ċ
Ġa ider
Ġb ody
ĠN um
sp an
Ġpr at
Ġvi ct
v or
Ġnombre uses
ir m
Ġpro pre
Ġaut or
8 9
y ant
re en
Ġch am
Ġpl ate
Ġse ule
Ġje une
Ġ Åĵ
Ġb al
ĠS al
ĠA v
. ')
b uild
Ġt end
he ure
ĠM erci
Ġcert ain
Ġgrand s
Res ult
O b
Ġ201 3
Ġn Ã©g
Ġclass es
Ġmon di
Ġsim il
plic ations
c ast
Ġc opy
ir d
ĠgÃ©nÃ©r al
Ġ= >
el if
ĠA ss
ĠcrÃ© er
Ar ray
A PI
er ce
um ps
opt im
A d
ĠP e
Ġtem perature
Ġauc un
om in
Ġb an
ess ages
ĠB ar
ĠM a
to kens
Ġenc rypt
comm it
Ġth ere
Ġpet its
opt ion
et ing
ens ions
Ġprogram ming
Ġsing le
l argest
Ã© gor
el y
pro ject
Ġ9 0
Ġdoc uments
C ount
a ide
o ver
Ġl um
Ġt ypes
ĠP O
ĠM in
Ġinv est
he ap
ul ation
Ġdes ign
ri re
Ġvisite d
Ġgouver nement
ul aire
ĠF in
LE CT
t n
tra ct
ĠR es
Ġne gative
Ġple in
Ġconne ction
Ġp ap
aÃ® t
Ġf ig
Ġch ac
ĠrÃ© fÃ©r
ĠSe quential
Ġnouve aux
b alance
re am
ĠL ib
7 0
T E
if est
ĠB r
Ġobject s
Ġhand le
Ġmod Ã¨le
c all
Ġd jango
h ref
c ar
Ġt ar
ĠS p
Ġau prÃ¨s
I LE
() ;
Ġuser name
Ġat te
ĠintÃ©r ess
Ġf ib
Ġh omme
head er
Ð ¾
ĠC ounter
ad a
onn es
Ġscra pe
se q
se cret
Ġse mble
Ġvoit ure
h ook
in omial
ge x
Ġpr est
ĠdÃ© t
Ġal low
con ne
Ġdou ble
Ġmerge d
ip eline
d ent
Ġs ample
ex pl
Ġre p
ab s
ag ner
Ġim ages
ĠmÃ© di
f ore
l s
Ġth read
Ġfin al
ĠprÃ©s ente
oci ation
s ql
ĠB ien
qu ences
Ġocc urr
5 5
c m
Ġg am
t we
Ġa mb
Ġc sv
ĠL ors
ap s
Ġal iment
p us
ĠR andom
Ġs ites
ĠD u
ĠDe p
Ġa oÃ»t
Ġw orld
Ġaut h
ro py
im at
Ġan aly
ter mine
au che
o od
ĠM at
load s
Ġcon dition
N ode
b as
h igh
ist iques
Ġ' /
ma ke
ĠrÃ©se au
Ġs ide
Ġv ia
Ġpr ise
Ġfa vor
du ce
Ġfin anci
Ġdo es
ĠAl ors
in c
Ġf requent
ite z
arg v
Ġactiv itÃ©s
Ġp ages
Ġl oin
Ġpr ices
gra de
Ġchois ir
Ġterr it
s ession
s ample
p air
Ġs ac
ĠM ult
pro pert
bin ary
al og
Ġr endre
Ġse lect
Ġperform ance
in ess
iqu Ã©
ĠmÃ© th
Ġprofessionn els
Ġris que
S ort
s ur
ic ally
ri es
du it
Ch ar
b r
ile d
ail leurs
trans action
TI ON
Ġproc Ã©d
ab lement
Ġ{} ".
Ġquot id
in v
ĠCon se
Ġdire ction
rie ve
un ic
Ġr end
Ġcons ult
Ġd er
ul ar
Ãª tes
ros s
Ġgen re
Ġsais on
pr it
Ġ3 5
Ġra is
pre dictions
Ð µ
Ġst yle
Ġex cl
ĠJ ava
Ġtechn ique
Ġpr end
Ġ3 1
" ],
Ġmet rics
o graph
Ġv ient
Ġv ectorizer
id ence
([ [
d et
n t
qu ant
Ġ20 22
ĠU ser
Ġprojet s
ĠrÃ©sult ats
ir er
Ġim pl
D B
ent iment
a w
Ġs ome
ad ata
par tement
Ġsh ow
x y
ais on
Ġem ploy
Ġsal le
Ġstrat Ã©g
p lement
s rc
t wo
w ard
Ġc ustom
ĠA m
Ġex iste
st op
ĠÃ© m
ĠdÃ© part
Ġcol lection
Ġgrat u
p in
Ġw rit
Ġis instance
are il
Ã©rie ure
Ġp ad
ex ist
ĠÃ©c rit
Ġg lobal
ĠA b
Ġt ard
port er
ĠReturn s
ĠvidÃ© o
v ar
Ġde vice
ro id
ra Ã®
iss ent
read y
Ġter min
Ġhead ers
#! /
Y ou
ic on
ig ine
yn am
n Ã©
in formation
Ġm or
Ġm ust
un d
ĠA f
Ġfac ile
mÃ© di
Ġpro blem
ĠÃ©t ant
Ġdom aine
C S
ĠS up
Ġh ommes
Ġsy mb
Ġspe ct
ĠcrÃ© ation
.... ....
Ġve ut
Ġch r
Ġbes oins
Ġli ke
il oc
ail s
ĠpiÃ¨ ces
Ġt imes
Ġass ert
Ġlow ercase
0 6
d own
vi ous
" >
Ã¨ les
Ġpar ler
Ġde termine
Ġv aleur
ĠmÃ© dec
I P
c f
Ġe mb
F A
Ġv ac
Ġje ux
ph a
Ġsol utions
t ypes
Ġc md
b utton
il y
ĠrÃ© ponse
tem plate
Ġplais ir
* (
a uss
s g
Ġse cteur
ĠG oogle
en e
Ġs te
ĠR em
Ġ ir
Ġc in
con d
Ġcol l
ense igne
0 8
im ag
ig ue
ĠA s
ven u
D O
s ign
Ġre gression
Ġh ere
ib il
ĠrÃ© v
Ġter re
a ul
qu elle
Ġin fo
ac er
Ġnum er
Ġ5 00
m age
p u
Ġexp Ã©rience
t te
ic ro
Ġw in
ith er
Ġmat iÃ¨re
Ġlay er
T h
Ġt aux
Ġn uit
Ġpr Ãªt
en nes
al s
Ġquat re
ro it
O L
on de
2 3
g g
m it
ch arger
yn c
Ġlong ue
C C
Ġparf ois
Ã©h ic
P AT
Ġrec urs
Ġci pher
7 8
s im
Ġc am
Ġpro tection
ser vice
fil es
occ asion
w ait
Ġra dius
1 000
7 5
Ãª mes
Ġ4 5
ms g
. '
I G
U P
m m
am s
ĠCh ar
head ers
Ġl un
ens es
Ġdro its
! ')
d ic
r s
v ies
} ")
ch ange
Ġfind s
Ġann onc
SE LECT
H ER
N U
P ath
Ã© ments
Ġf etch
Ġqu al
Ġg uerre
Ġ[ ],
ĠF ROM
ĠE st
Ġall er
Ġorigin al
ĠU p
Ġtrans action
ĠD ata
Ġpl ay
Ġlow er
* -
f etch
h y
ĠT e
ĠMult inomial
ess es
Ġsim plement
Ġtechn iques
h ab
et a
Ġm ouve
al f
Ġtrans form
Ġsup pl
Ġin du
Ġw ork
er m
Ġla quelle
Ġin cre
Ġ" .
st ock
ĠCh rist
ivers itÃ©
M ar
im ents
us iness
Ġf rÃ©
if t
ĠP ol
ĠD is
Un is
h Ã©s
Ġt ourn
Ġe dit
Ġe very
Ġsh ort
bo se
Ex ception
Ġf ast
int s
ĠE T
") .
ĠSt ring
r ant
Ġt aille
el per
ĠP ort
M odel
N ot
Ġp op
ent rÃ©e
Ġdu plicates
Ġra w
Ġa yant
Ġl inked
Ġmat in
ĠGener al
de v
L es
on y
Ġ- >
Ġmon th
util s
requ encies
Ġmulti ply
2 8
I tem
K EY
ĠH e
ĠIn st
Ġpersonn el
Ġprocess us
Ġprofessionn el
pos er
N o
Ġf our
ĠA ct
Ġrec ord
indow s
Ġauc une
Ġa jout
Ġc Åĵur
is f
ist ique
Ġst d
ĠS c
Ġas cending
Ġfilter ed
g in
p ing
Ġense mble
s qrt
Ġp ie
Ġc op
Ġla mb
ex cept
Ġp il
Ġ200 9
Ġaur ait
it ch
Ġcont rib
ust ers
OR T
uff le
Ġax is
am ent
Ġconf ort
4 4
b a
Ġ q
ue ill
oy er
gl ish
Ġne ural
row n
D ir
is ode
Ġ- *-
ert s
EN D
ĠAn d
t ings
ĠS im
ail able
Ġspe cial
3 6
O pt
it able
ĠC lass
. *
ĠA I
class ifier
Ġab s
ĠLog istic
2 6
A Y
M essage
d rop
Ġpr imes
ĠrÃ© f
Ġcomm ande
Ġcl asse
Ġam Ã©ric
P S
v o
ul te
Ġma Ã®
ra g
and ler
Ġsc ores
ven ue
Ġcomp agn
ĠrÃ©s erv
H E
a ie
Ġph ys
Ġmag n
c ustomer
c md
con st
ĠU S
ĠMultinomial NB
) /
F F
c ity
Ġt ent
Ġre d
ĠĠĠĠĠĠĠĠĠĠĠĠĠĠĠĠ ĠĠĠĠĠĠĠĠĊ
Ġeffic ace
er o
Ġc ursor
iv itÃ©
In dex
g le
h as
Ġv ide
Ġpro ject
ĠÃ© nerg
ĠrÃ© un
con f
Ġtra dition
Ġdur Ã©e
Ġlamb da
S cript
f requent
it ation
Ġr Ã´le
us ers
Ġter me
Ġgre at
({ '
Ġtri angle
Ġt ax
Ġc y
ot es
f ois
Ġn odes
ĠÃ© lev
Ġcalcul ates
k n
Ġal ready
Ġde tails
Ġv Ã©hic
': '
g u
u ck
ĠI sl
Ġbl anc
O S
s quare
Ð °
iss ions
Ġdeux iÃ¨me
t rue
Ġ" /
ab c
Ġpl ot
ĠbÃ©nÃ©f ic
8 8
C D
p unctuation
Ġ" \
Ġpre diction
Ġfor ce
ĠdÃ© fin
ext raction
B y
I ST
Ġp ur
ou re
Ġv ite
ĠQu el
ĠrÃ©g ul
Ġcompr endre
Ġaur a
ĠsÃ» r
D es
Ġpar c
ĠÃ©t abl
Ġinput s
ĠExt ract
Ġn oir
ĠÃ ¢
dep th
poch s
l and
od d
AT ION
ne ments
Ġaf ter
Ġcuis ine
Ġe ither
Ġaut ant
Ġv ois
per m
Ġdonn Ã©
Ġparticul ier
ĠÃ©conom ique
t x
ĠS m
ĠPar se
place ment
Ġdirect ement
`` `
m ary
Ġd oss
Ġf ield
Ġoutput s
esp ace
Ġqu art
Ġsort ing
Ð ¸
or ial
Ġv ont
ad am
Ġmus ique
Ġcorrespond ing
ĠG NU
air tel
Ġz one
d est
Ġb ure
Ã¨ de
Ġâ Ĩ
d raw
f unc
Ġm ass
ĠrÃ© uss
Ġper d
Ġ7 0
Ġparam s
C A
b les
Ġal so
Ġdi ction
ĠP ubl
pr ices
ĠS QL
ĠE N
ĠJ u
to ols
sum er
Ġgrand es
posit ions
Ġsouh ait
n elle
Ġl ire
Ġto i
Ġ" +
ĠA S
Ġh or
C ode
r ase
x im
Ġgra de
p i
pr is
ap on
Ġclass ification
Ġman ifest
For est
Ġrom an
Ġchat bot
d river
pr es
ac ity
Ġattrib utes
Ġs end
Ġlog ging
sal ary
k er
o ve
Ġl ut
if ie
Ġle v
ab ord
ĠrÃ© p
") ,
Ġid Ã©
Ġcher che
l oss
Ġa ir
Ġn or
Ġg Ã©
ĠsiÃ¨ cle
" ):
Ġ err
en viron
Ġl ien
or igine
Ġf ille
ĠL ire
Ġproduct s
] ):
p ir
Ġd ays
Ġex ception
": "
v ing
Ġre comm
ĠĠĠĠĠĠĠĠĠĠĠĠĠĠĠĠ ĠĠ
Ġemail s
Ġag rÃ©
a Ã¯
Ġa i
Ã© mo
ind er
ille urs
2 9
ĠdÃ© g
ĠO b
Ġchar s
Ġvra i
ĠVal ue
Ġminist re
r l
it aires
ar de
ĠT ous
Ġenc rypted
Ġmaj or
us se
isse z
ĠS o
end ent
Ġou vert
Ġdiffic ile
en ez
Ġin itialize
Ġparam eter
Ġvac ances
Ġz ip
P E
in cl
Ġb roy
ĠS entiment
ĠIn put
Ġam Ã©lior
Ġfra me
i lement
Ġ ):
ad es
Ġma uv
Ġcol lab
Cont ent
F ibonacci
en n
Ġv ar
ĠC ON
Ġg cd
Ġcl f
Ġwe ights
ĠAcc ueil
) [
E qual
r is
ent i
ap er
ĠG rand
isse ments
Ġhaut e
P h
c g
p es
ise z
Ġsy m
Ġmeille ure
Ġsat isf
Ġc lean
Ġb ubble
Ġar ch
H andler
d l
im in
Ġsal ary
ĠDep uis
in ct
stru ction
sp ace
Ġconcern ant
r Ã©s
th Ã¨
Ġpro pert
ĠÃ© col
a a
a ign
if iÃ©
ib l
Ġwe ek
Ġprobl Ã¨mes
Ġcook ies
/ {
V ER
c el
Ġse par
Ġse main
mod ule
ĠSu jet
T ER
c ros
Ġs an
ra ison
Ġj ardin
ĠĠĠĠĠĠĠĠĠĠĠĠĠĠĠĠ Ġ
Ġmil ieu
ĠrÃ©pond re
C reate
M E
Ġp sy
sc ale
In st
Ġbook s
Ġ' --
ite d
ois e
ĠfranÃ§ais e
Ġtk inter
M A
Ġap i
pect ed
ĠÃ©l Ã©ments
Se arch
Ġchange ment
V C
r ices
t u
ĠT O
ĠM ich
Ġfl ag
Ġcompr is
ĠprÃ©c Ã©d
0 3
as on
Ġn Ã©
Ġr out
ch ant
duc ation
Ġg ard
Ġsu ivre
Ġg az
Ġun ivers
list s
Ġcou leur
ð Ł
Ġ: :
obil ier
O f
at ural
av ais
Ġcl osest
1234 5
B ase
v owels
Ġ' -
su ccess
ĠLogistic Regression
S QL
Ġ our
is hed
Ġob j
Ġcommun ication
Ġupper case
imest amp
E ur
ĠC o
oc ol
Ġmeille urs
Ġchac un
v ari
en f
Ġp ush
ens ity
Ġhist oire
z ip
all er
Ġad minist
ana gram
Ġoper ation
S tr
Ġa st
Ġdes c
Ġex ec
up art
alis Ã©
ĠConse il
Ġsemain es
N A
a ime
Ġch oice
Ġsc ol
Ġdev rait
ur t
Ġpar ents
Ġche f
ĠQu and
Ġconse ils
Ġl oss
Ġn th
Ġre port
ĠF ace
Ġpl upart
sent ropy
ĠRandom Forest
D P
T N
j s
Ġt om
Ġv irt
Ġpl ast
ĠNe w
Ġl it
Ġre mo
em ploi
0 9
G et
Q u
R et
Ġd oute
on om
Ġre command
Ġb Ã¢t
lo op
ĠdÃ© ch
)) ,
Ġstru ct
( ['
, "
C omm
a prÃ¨s
g o
Ġc oding
ot ion
ig u
rib ute
Ġvol ont
Ġcombin ations
Ġcham bre
Ġv ent
Ġv oul
ĠC ons
ĠIn ter
Ã© mat
Ġde vez
if iques
Ġe valuate
Ġcheck s
Ġm m
de lete
ĠtÃ©lÃ© phone
Ġb ord
Ġurl lib
An alyzer
p are
al ie
Ġb in
ĠT w
ous se
Ġch iff
Ġdispon ible
ĠI S
Ã©t aire
Ġarr iv
pre fix
I F
Ġs in
Ġg auche
ap pr
ĠB ou
Ġcomput er
child ren
Ġpair s
Ġm Ã©l
ud get
Ġass ur
orm ais
ĠIsl and
b it
Ġd on
Ã¨ ves
ex te
by tes
I O
i j
t Ã©
um es
Ġle quel
m is
w d
ĠEn tre
Ġsent ences
Ġmulti plication
'] [
we ight
resh ape
ut ed
arg ent
Ġd ay
Ã©t Ã©s
Ġsort ie
Ġperm is
PAT H
Ġter rain
Ġdispon ibles
M od
P lease
t om
Ġn ational
ĠC O
Ġe pochs
olog ique
Ġeur os
Ġprot Ã©g
cros sentropy
ot el
ie ur
Ġpar mi
Ġcat Ã©gor
4 8
j ust
in te
am a
ĠS T
Ġsou ff
Ġsal ari
Ġeffic ient
Ġindu stri
n ous
Ġc ounter
ĠD ense
ĠrÃ©alis er
w ise
Ġd ot
Ġv ivre
Ġle ast
Ġpr im
ĠEx ception
Ġfac ilement
Ġhist or
Ġdistrib ution
h omme
Ġn u
Ġv ais
end ra
Ġser r
ial og
I t
s up
Ġo ld
Ġse ction
Ġwith in
Ġso ient
Ġsou l
rol l
Ġnav ig
o ad
ĠC ert
Ġan other
Ġcon text
ific ations
lim it
Ġdu plicate
'] ]
gl ais
u ile
Ġus es
Ã´ me
Ġconf iance
a e
Ġr ue
Ġse x
Ġy eux
ĠĠĠĠĠĠĠĠĠĠĠĠĠĠĠĠ ĠĠĠĠĠĠĠĠĠĠĠĠĠĠĠ
Ġquotid ien
Ġret rieve
ex pression
we ather
char ge
Ġrem ar
Ġsoci aux
Ġfr anc
Ġp ou
Ġn ationale
Ã¨ tre
ĠprÃ©s ence
ĠprÃ© fÃ©r
Ġab sol
Ġsucc Ã¨s
z y
di ent
Ġk n
Ġintern et
m ulti
r ating
Ġa ctions
Ġp ied
Ġl ines
pr imer
ĠA ir
Ġro t
Ġord in
Ġpermet tre
C K
ĠUp date
Ġm essages
Ġan alysis
object s
Ġcomple t
A dd
b es
ĠĠĠĠĠĠĠĠ ĠĠĊ
num er
Ġdro ite
0 4
or de
int Ã©r
Ġpr esse
Ġst ores
Ġst andard
ĠA insi
Ġconst itu
Ġobt enir
Ġsouhaite z
L ine
Ġd ynam
as ing
Ġr Ãª
one y
Ġpre vious
Ġpolit iques
u els
Ġ[ (
to y
assert Equal
Ġgam me
) **
0 7
k i
k ing
ĠS elon
ail l
Ġfr ont
Ġsuppl Ã©ment
Ġan imal
ĠO R
Ġob jet
Ġmod Ã¨les
A ct
Ġ ì
ure z
ign er
ari o
Ġutilis Ã©
Ġconse il
ĠHT TP
resh old
ĠF it
Ġcont rat
ud ents
Ġdern iÃ¨res
Ġap pl
c er
Ġd ownload
ol der
iz ing
ĠV oir
teg er
Ġcontr Ã´le
Ġen fin
ĠS tr
Ã©r ature
ill a
Ġsoci ale
Ġconstru ction
A ss
v ide
qu i
ĠL A
ĠI s
Ġou i
ĠV otre
Ġtrans port
Ġ200 8
Ġtravail ler
Int ensity
et h
Ġb alance
Ġmes ures
g Ã©
Ġse cret
ex it
Ġparticul iÃ¨rement
Ġdest ination
Ã©b ec
erg ie
j o
Ġm ult
dis play
: %
(" \
em b
Ġposs ibilitÃ©
Ñ Ĥ
Ġs ession
ĠR un
2 7
h ash
Ġnew s
ron ique
+ =
\ .
is ant
Ġmer ci
Ġsoci al
activ itÃ©
ĠSentiment Intensity
is Ã©e
Ġen regist
Ġpr ior
pons es
ĠL E
Ġoper ations
C RE
c ache
d og
e ch
Ġv enir
ĠT ext
Ġman que
propert y
Ġt el
Ġc elles
Ġles s
ĠR Ã©s
pre diction
Ġrec ords
ĠÃ©v Ã©
mon th
ĠSentimentIntensity Analyzer
I E
Ġal tern
oo lean
Ġlors qu
ĠAp p
S h
Ġl ook
ĠdÃ© tail
ĠW e
ance ment
ĠÃ©t at
Ġap pe
ĠPr Ã©s
Ġoper ator
Ġfact ors
Ġa ide
Ġp Ã©n
se quences
id den
ĠÂ ·
Ġdis position
met rics
AC E
Ġexist ing
Ġtask s
Ġf ields
Ġin iti
pr imes
Ġnum Ã©ro
Ġch anger
Ġlaiss er
d ot
Ġc Ã©l
ĠA g
ĠdÃ© termin
og n
Ġim ag
Ġsuiv i
Ġcategor ies
Ġtwe et
b i
l ate
l anguage
Ġt exte
st ore
ĠC onne
Ġma y
ener ator
Ġcomm ence
Ġpo ids
Ġans wer
posit ive
X X
c ision
c elsius
ĠP rix
Ġdes cending
(' \
Ġim pos
l ess
u id
Ġa illeurs
our g
ĠF ranÃ§ais
ĠB el
d ays
Ġc lo
Ġm issing
ĠC opy
Ġpe ux
log in
AN T
Ġpa ie
ĠPost Ã©
Ġdiction aries
] *
Ġm ut
Ġm enu
est e
ĠM ac
ĠdÃ© n
Ġsame di
Ġenviron ment
l ic
Ġc rois
ic ile
ch ain
Ġjou er
Ġencode d
optim izer
Ġt al
Ġcont enu
ĠH aut
Ob ject
Ġr and
ĠP erson
Ã©m ie
5 00
U B
it ution
ac le
au v
Ġprem iers
` ,
n g
u elles
Ġc iv
Ġou bl
'] :
Ġsuiv ant
cent er
J e
e v
Ġp in
th is
ĠR ec
p p
y l
le ep
Ġext ra
Ġcap it
Ġple ine
ou x
op le
em p
dat abase
Ġcr ise
c rit
u zz
es e
po que
ran ch
Ġco Ã»
Ġenf ant
6 6
b on
g est
Ġm icro
ĠP et
ĠC V
end ar
Ġdern iers
Ġcomment aire
Ġdur ant
ĠÃ©lect rique
is d
Ġm ission
int Ã©rieur
Ġ' {
Ã©r ence
Ġpart ici
onn er
mer ge
Ġjou eurs
Ġrou ge
avant age
Ġpres que
c les
is ible
app ro
Ġav aient
Ġfait es
Ġmag as
Ġtwe ets
omin ator
3 9
Ġp Ã¨re
ique z
par ation
Ġcl uster
Ġrel ig
Ġfonction n
'} )
Ġcre ates
ban ana
N E
ĠS te
ĠS oci
Ġex erc
app ing
tex te
O utput
Ã© min
ed ding
Ġ4 00
Ġpe int
Ġlib ert
Ġretr ouver
l am
w ik
Ġ ï¿½
ĠF r
Ġsur face
count ry
ĠpiÃ¨ ce
Col umn
A c
b ers
Ġst ation
ĠR ed
'] ['
Ġcl ub
In ter
Ġpo se
at ifs
Ġj ur
ĠD ire
ĠM ag
ĠR E
ign es
Ġappro pri
Ġp ower
Ġt a
Ġr ate
Ġtra verse
Ġpet ites
ĠdÃ©s ormais
Ġmot s
E m
or ient
Ġ" -
ĠS ol
ĠdÃ© mar
result s
Ġind ic
product s
Res ponse
xx xx
qu is
Ġi p
Ġkey word
ĠK ey
Ġind ices
'} ,
Ġgener ates
ĠIntern et
b um
iv ed
Ġis s
ĠN OT
Ġex ecute
met tre
ann el
Ġrel ative
Ġvol ume
/ '
Ġ ur
Ġm ap
ĠP AR
ĠC elsius
Ġcon du
ĠW indows
url s
Ġche min
Ġmat ches
ĠprÃ© f
Ġgu ess
ĠÃīt ats
nov ation
Ġp al
Ġthe y
Ã¨ rent
ĠM us
Ġcomm une
occ up
Ġcategor y
A ge
Ġaut o
Ġsort s
ick et
Ġhead er
Ġver bose
Data Frame
Ð¾ Ð
b n
in o
ĠY ork
ĠsÃ© jour
book s
Ġtag s
Ġress ources
Ġsw ap
v m
y on
Ġf oot
In fo
Ġsp am
Ġmoy ens
> <
Ġex cell
Ser ver
m enu
Ġs ait
or er
Ġ" %
ĠD jango
Ġdiffic ult
filter ed
Aut hor
Ġchauff age
ĠValue Error
Ġpart i
20 20
Trans action
ĠM er
ĠrÃ©c up
( *
8 7
l ant
ĠM odel
ique ment
ach ine
LO G
ra le
ĠC all
Ġ' ',
ĠS w
Ġh ow
ĠR om
ĠO u
y cl
Ġ ðŁ
el er
Ġy ield
tt es
Ġrel ation
ĠCan ada
> "
Ġt Ã©l
Ġc ot
Ġcon struct
ĠN os
act ive
alis er
cont ents
aly se
d ig
ĠL inked
Ġint Ã©gr
Ġacc ount
25 6
post s
f ahrenheit
il Ãł
low ercase
Ġlength s
amb res
Ġiter ate
g n
ro t
Ġ3 4
ĠĠĠĠĠĠĠĠĠĠĠĠĠĠĠĠ ĠĠĠĠĠĠĠĠ
ma z
Ġcert aine
rap per
ch at
Ġw ould
20 21
ret ien
Ġcons Ã©qu
Ġlib re
Ġcou leurs
ĠVo ici
Ġre ct
ud o
Ġlong temps
Ġmouve ment
U I
w ay
ext end
Ġmod ify
M S
Ġqu elle
ĠS ud
Ġsu d
cont act
Ġach eter
ne gative
AB LE
Ġbat ch
Ġvendre di
P re
g ender
ĠF ahrenheit
Ġdis pose
Ġdest in
Ġsci ent
Ġa wait
Ġs quares
ul ate
ĠS ci
and s
Ġtra ck
Ġor ient
Ġwe ight
In correct
we ights
Ġter ms
ĠÃ©v ol
Ġpy game
Ġmoy enne
G ER
V E
e ded
s ave
Ã© conom
Ġm i
de code
ut ral
ĠC a
ĠC et
op er
ill on
Ġpermet tant
AL U
Ġprofit er
Ġre main
ĠP C
Ġh ors
sy stem
I s
y m
it ive
Ġde venir
Ġle cture
oc ation
Ġbe en
Ġmar che
Ġpu issance
ĠrÃ©sult at
P ost
{ '
Ġt uple
Ġc inÃ©
Ġf en
ch o
ĠG ra
Ġem ployee
vector izer
: **
F unction
s ible
ir s
Ġmo teur
ĠQu Ã©bec
F l
d umps
Ġpe au
iss ors
Ġsecon ds
Ġtit les
ĠgÃ©nÃ©ra le
Ġcin q
3 1
S cal
s ig
Ġ ge
Ġ' %
ĠF ranÃ§
t mp
Ġre mb
Ġb rown
Ġpro che
id Ã©e
ĠM ain
Ġim mÃ©di
L abel
w in
at form
ur ent
st e
Ġw allet
Ġim g
In valid
Ser vice
P L
e lem
Ġen vie
' ;
p ip
Ġ" <
ve ill
Ġne uf
Ġpermet tent
agn ost
ĠEur ope
Ġbure au
p ie
Ġv illage
ic y
Ġpro gress
ri angle
ĠN et
]) ,
Ġout ils
mo vie
urg ence
categor ical
O UR
o gram
v ille
Ġc raw
Ġv iv
Ġpar le
Ġch ant
Ġma il
ĠW h
sp am
Ġterrit oire
Ġd og
Ġv in
ĠP S
ic a
ers ion
ie use
Ġactiv itÃ©
H ome
S ize
st udent
ĠC al
Ġe lem
Ġpro xim
Ġcomment aires
valu ation
Ġrequ ire
Ġimplement s
Ġdemand er
B utton
b ayes
Ġs low
ĠdÃ© partement
ĠE valuate
Ġdev ra
Ġpost s
Ġmid dle
zer os
Ġant i
Ġcaract Ã©r
Ġauth ent
n ormal
Ġc ab
it iÃ©
Ġm ent
im Ã©
il ib
ĠM et
ĠN a
Ġc ade
Ġle vel
Ġprincip al
dom ain
4 9
N AM
R S
U RE
as c
ct x
Ġb ag
ĠF il
Ġ0 9
ĠE X
ven us
Ġcomp orte
Ġlun di
Ġf i
Ġn ow
ĠP at
Ġles qu
Ġpour tant
Ġch ance
con s
pre processing
Ġsub process
acc Ã¨s
Ġproxim itÃ©
Ġp ois
ar itÃ©
iz es
Ã©c ole
Ġname d
ĠSe e
ĠPubl iÃ©
w rit
at ter
Ġg lob
Ġso le
Ã©n ergie
ĠÃ©v iter
Ġcro issance
Ġdec imal
I RE
Â ²
Ã© lo
Ġc ity
Ġus age
ob jet
Ġdi pl
Ġtest ing
Ġend point
Ġren dez
Ġrespons able
Pr ime
Ġliv raison
Ġdoss ier
' \
' {
b s
Ġs ocket
ri p
Ġx ml
Ġoptim izer
+ +
p ublic
re al
qu et
Ġsc Ã¨ne
T S
Ġr ating
ĠC at
ie w
ĠR en
iz z
column s
Ġaccord ing
Ġmalad ie
b ound
d ates
Ġs l
our t
Ġem p
hand le
Ret urn
l l
p ens
Ġp i
it ue
Ġn our
um p
est ival
Ġen vironnement
ĠR Ã©g
str ong
pon ent
Ġdis c
ĠCom pute
Ġtu ples
AB C
Ġcir c
exp Ã©rience
ĠFace book
qu Ãªte
he x
Ġre pe
ĠT V
Ġg ender
ĠB en
ĠCh ine
Ġapp end
Ġvo ix
Eur ope
Ġd river
Ġ' *
ĠA tt
form ations
Ã§ ons
Ġam is
Ġbut ton
local host
ĠBon jour
Ġs ix
Ġt Ã©mo
an ne
Ġf unc
## #
ĠrÃ© alitÃ©
ĠLo op
Ġcre ating
Â» ,
Ġfich ier
Ġoccurr ences
c alculate
r est
on ie
ĠÃ© cl
ĠdÃ© pl
bo ve
Ġfl atten
rop out
ĠAu jourd
Ġrespons es
Par ser
pol arity
8 5
ĠR EST
ubl ique
Ġbo x
Ġlog iciel
ĠÃ©l Ã¨ves
S V
Ġm sg
Ġre ference
ass er
Ġch aÃ®
Ġfa ud
Ġex c
Ġex act
Ãª che
ref erence
ipe dia
Ġvalid ate
sol ution
ĠnÃ©cess aires
ĠPre m
Ġconsomm ation
M y
R A
S c
Ġl itt
ul er
Ġco Ã»t
Ġoptim ized
Ġren for
ĠrÃ©se aux
install ation
ĠTw itter
tt p
Ġdev ient
Ġconfig uration
Ġdim anche
Ġquick sort
gress or
ĠArt icle
HER E
" }
Ġin sc
om s
Ġr at
ĠP y
Ġb udget
Ġw ant
ĠM A
Ġ! !!
Ã´ ne
Ġdis par
Ġcap t
Ġcap acitÃ©
Ġs our
or igin
ar k
ite ur
Ġ3 00
ĠO pen
ĠÃ©t r
C ON
E l
s pr
or n
Ġf un
Ġj ol
Ġmont re
Ġcir cul
w orld
Ġp ert
om bre
Ġto it
ach at
link s
T Y
ĠM ax
em pty
Ġfil s
ĠdÃ©c ision
Ã´t els
Ġpubl ique
IT Y
Cl ient
! '
? ?
W orld
u ille
Ġd raw
Ġpr ession
ĠG e
Ġnet toy
Ġjourn al
Ġcontra ire
/ %
M in
Ġs orte
Ã¨ ge
ĠF ree
Ã©r al
D AT
l ayer
x i
ord re
ass urance
Ġpour rez
sent ences
Ġadd ition
Ġpuis que
Ġlang ue
Ġbel ow
Ġsole il
r ons
Ġso ftware
Ġmont ant
se mbl
ri ct
Ġ( -
Ġ> >
ĠEn fin
ĠCe pendant
Ġcontin u
so ft
Ġcir cle
ĠNo Ã«l
E tat
g ique
Ġf ore
ra ce
un it
Ġan glais
ĠR Ã©p
Ġlum iÃ¨re
. )
f idf
Ġl is
Ġc os
le u
Ġm Ã¨re
Ġpar cours
Ġav ailable
Ġpass age
Ġcons ole
Ġdiv ide
Ġread s
Ġprat iques
A m
is an
Ġg agner
Ġph rase
Ġimport ante
Ġent ry
Ġconn aÃ®tre
Ġaccomp agn
y our
ur a
ĠC entre
Ġap plications
acc ord
asse ur
ĠvÃ©r itable
dess us
Ã¢te au
Ġa bove
Ġt mp
ar a
Ġb ons
ĠC rÃ©
ĠV ector
gr ic
ern el
set s
olog ies
co le
esse ur
na ive
ĠRandomForest Classifier
S u
ri ques
Ġcon cl
ĠJ ohn
Ġfil ms
Ġvou lez
us age
Ġgenerate d
oud re
O n
m al
al le
Ġg rid
ac ques
Ġch aleur
Ġch ambres
ĠPour quoi
Ãªt s
Ġunique ment
C I
ĠT fidf
ist ant
id get
ĠdÃ© rou
aut eur
Ġav g
iss age
pro b
ell ig
ax is
h i
Ġm and
add ing
Ġ200 0
AR D
organ isation
n orm
Ġ" _
Ġ3 6
Ġpe ine
ouv re
Ġacc ueill
Ġconn aiss
" {
re port
mo id
Ġdom icile
Ġgroup es
Ġpropert ies
5 9
M o
v in
Ġl ieux
ĠN on
Ġ3 3
av ait
Ġarr ive
Ã©c an
Ġtw ee
([ "
ites se
ĠCont act
Tree Classifier
Ġtwee py
R ES
c ir
Ġc ache
at ch
il os
int es
Ġso i
12 8
ĠdÃ©velop per
ĠTo ken
Ġprofessionn elle
P ay
U rl
d Ã©
Ġm obile
Ġe v
ve ur
Ġcreate d
ĠMar ie
Ġpack age
SER T
Ġs ang
or Ã©
Ġm as
ĠÃ© to
Ġinter section
ĠSer vice
Ġprob ability
cut ive
ordin ates
ĠrÃ©fÃ©r ence
} /
ĠT Ã©lÃ©
Ġe au
ch a
Ġsub ject
vol ution
Ġequ ation
r iv
Ã©t at
Ġconn u
ĠprÃ©c is
Ġrais ons
Ġm ig
st er
categor y
EX T
ĠÅĵ uvre
] ['
Ġe d
ĠD oe
me dian
Ġcl imat
Ġmod ules
Ġess entiel
unic ip
i as
Ġt els
pl ays
con text
urr ence
fit ness
find all
Ġconc at
mar k
Ġpropos er
ension al
upper case
ĠcompÃ©t ences
h Ã´tel
om et
ĠP ierre
Ġb onnes
Ġfor te
Ġcon cept
ĠO ui
oo se
Ġdat es
Ġrest er
ĠCopy right
Ġc oin
Ġm ou
ate ment
Ġpl ac
rit ure
isc ine
A t
m ath
Ġf ox
com bin
Ġsout ien
conne ction
Ġcompagn ie
C M
N O
x label
Ġd os
ou bl
ĠR oy
Ġ7 5
Ġsub tract
Ġcommun autÃ©
Ġvalid ation
Ġdirect eur
Ġdiffer ence
ĠgÃ©nÃ©ra lement
fetch all
p erson
Ġfor um
Ġso ins
ouver te
Ġmem bre
r as
Ġd ialog
Ġt Ã¢
Ġm Ãªmes
qu Ã©e
ĠT u
Ã©d er
Ġco ord
Ġfonction nement
Ġs ure
Ġn ull
int ern
Ġ( (
ĠN ot
ĠV is
Ã©t ude
Ġoff res
Ġmulti ples
Ġhaut eur
A SE
\ "
s amples
y label
ou verture
it ions
st at
ĠB ase
oc he
ĠO ff
arr y
Ġact uellement
Ġdist inct
Ġ200 7
comp ound
-------------------------------- --------------------------------
Ġappr Ã©ci
Ġpa ix
Ġdec ision
ĠAN Y
in i
ĠC re
app y
Ġrencont res
Ġcontact er
ĠrÃ©du ire
Ġrestaur ant
ĠConne ct
4 3
et Ã©
od er
Ġse lection
Ġcont ents
ĠAn n
Ġcour t
ival ent
Ġmari age
C he
er ver
ĠR ob
Ġtr an
cl uster
ĠDe cision
Ġtest s
Ġpermet tra
Ġmer cre
ĠdÃ©f ense
D ate
P ool
g el
r ary
t od
Ġ ut
me ans
Ġpart ies
input s
Ã¢ tre
Ġfon ds
ug gest
Ġfais ant
Ġcamp agne
Or der
Ġcit oy
a itement
Ġun til
pro ve
ud ing
ĠEx ample
Ġcal c
inv est
P ORT
t ax
Ġc af
Ġr ent
Ã¨ tement
ver ted
gram ming
') ;
che d
ĠRe write
IN SERT
Ġpol y
Ġliv res
Ġtrouv Ã©
k a
er ia
Ġf ull
Ġm ur
Ġre Ã§u
am eters
Ġ0 6
Ġ200 6
lem agne
Ġcall back
ĠPre dict
ĠIN TO
ĠJava Script
urt le
r Ãªme
Ġde bug
ĠP RO
ft ime
Ġconc erne
Ġenv oy
A U
M O
W hat
Ġre view
ĠF OR
ĠW AR
Ã´ te
Ġconc ours
Ġid Ã©e
Ġocc ur
CC ESS
r ication
Ð ½
Ġl ois
as tr
Ġre al
Ġse c
ind ust
... ]
Ġconse ill
ALU ES
9 5
R NA
Ġc ra
Ġf ree
Ġf Ã©min
se cond
Ġgu ide
Ġcontr Ã´
imp orte
, -
D A
S M
j oint
Ġf requencies
est ed
Ġb ro
oun ds
attr s
ĠMod ify
ĠdÃ©clar Ã©
A tt
t i
Ġd one
el come
ra is
Ġla isse
ĠM s
cont rib
ere z
Ġop Ã©r
Ġmal grÃ©
Ġmercre di
C L
L og
u alitÃ©
le g
Ġo e
ĠL ou
ĠO F
pro v
Ġent raÃ®
Ġmar di
Ġsal on
'} ),
posit ory
Ġve ux
Ġmill i
spe ed
ĠPh il
Ġfit ness
Ġpsy ch
f n
k l
in et
Ġp ipeline
Ġt re
it re
Ġma ins
ag Ã©
Ġpre fix
anc Ã©
ĠRe g
sh ort
cor pus
Ġgar de
Ġexist s
curr ency
I l
d type
i ale
Ã© ros
Ġre pro
ic ol
ul s
Ġro s
ĠdÃ©c idÃ©
lect ric
12 3
Ġoptim ization
angu ages
Aut h
Ġproch aine
j oute
Ġs ources
is Ã©s
ĠT our
ais es
per i
Ġsu gg
-------- ----
met adata
ĠSt andard
ĠAl l
dess ous
t p
am our
Ġw ay
ĠG ET
Ġdis posit
Ġco effic
Ġsecon de
Ġ25 5
ĠeuropÃ© enne
ĠrÃ¨g les
. ',
8 4
m ission
Ġs il
Ġre q
se lect
ĠP aul
Ġb lo
ĠT oute
Ġret ra
Ġst ream
Ġgen e
Ġremain ing
m ac
n on
Ġt ab
im o
Ġst ats
ve ux
mb er
ĠDe ux
... )
Ã¢ ge
Ġdataset s
Ġdou ce
std out
Char Field
Ġrecurs ive
Scal er
8 6
h uile
es prit
ĠM TN
ain er
eur os
Ġid Ã©es
ĠMais on
ĠmatÃ©ri el
Ġpap ier
Ġder riÃ¨re
uck et
Ġerr ors
7 7
h ome
Ġp ayer
ĠL un
em ploy
ĠrÃ© t
fe ction
Ġno te
Ġtechn ologie
**** ****
ĠmÃ©di as
Ġlibert Ã©
Author ization
5 4
N et
S I
Ġf alse
ce pte
ap es
Ã©c ut
alis Ã©e
Ġpost e
ĠdÃ©velop p
Ġ ign
Ġd Ã»
Ġ' <
Ġ0 8
ĠG Ã©n
Ġdis plays
20 19
Ġsub strings
Ġ{} '.
Ġutilis ateurs
ĠÃ©quip es
Ġshort est
f ait
f ull
Ġb anc
ĠC as
ir us
ĠD r
() ))
ĠSt udent
Ġass urer
Ġrec ycl
new s
Ġinstall ation
Ġparf ait
ĠstratÃ©g ie
y e
qu it
Ġ0 1
ci pe
ĠV ALUES
ph i
Ġsort ir
ran che
Ġsign al
Ġtrois iÃ¨me
Ġproch ain
: :
Ġd oll
en us
Ġc ard
Ġpe ur
Ġconf ir
Ġdev is
Ġdep th
Ġfourn isse
uil t
Ġcart es
Ġpaie ment
p ace
en vironnement
Ġs rc
Ġt iss
Ġv as
ĠP ers
Ġnum Ã©rique
ĠB ook
ĠW ord
vol ume
twe et
kn own
C all
F rance
ĠS am
Ġne ighb
Ġacc Ã¨s
open api
i Ã©s
Ñ ģ
Ġm am
Ġcon ception
") ;
Ġad resse
Ġdi agnost
Ġter mes
start s
Ġoff iciel
ĠrÃ©alis Ã©
_ ='
p he
ĠP oint
ĠP DF
ĠIn s
Ġcons ci
Ġintern ational
Ġretr ouv
arm ac
Ġphys ique
> '
U V
b est
p a
ĠP rÃ©
str ftime
ale urs
Ġrun ning
Ġcommenc er
ĠSo ftware
W eb
en de
Ġp Ã©t
Ġre lev
ĠF orm
ĠU til
Ġ6 5
cont rol
Ġprem iÃ¨res
ĠrÃ©g ime
A s
Ġc elsius
ent ry
Ġm Ã¨tres
ĠC am
Ġpar a
ĠV er
AL L
Ne w
cap ital
g ent
en nent
or ing
ot te
and is
ĠD em
ĠJ ul
An d
? )
U E
s w
ĠdÃ© di
Ġconn aissance
Ġid x
Ġris ques
Ġdistrib uted
5 7
l Ãł
p ng
Ġn atural
ask et
Ġje udi
Ġatt end
Ġfac il
( _
3 8
k it
it ut
Ġn orm
Ġw ww
ouv rir
ĠPro f
Ġpubl iÃ©
/ <
M ENT
or ange
Ġre Ã§
Ġ' \
== '
ple x
Ġpart ager
ouv rez
Ġesp ace
Ġsoir Ã©e
ĠLors que
e le
Ġpar is
Ġdata frame
che my
sc reen
âĢ¦ ]
Ġautom atique
Ġattrib ute
Ġtend ance
enseigne ment
Home Dir
C onne
Ġp om
Ġm ention
ĠÃ© dition
Ġvo ie
su ff
Ġutil ise
ĠÃ©tudi ants
Ġr ich
ĠS ans
ĠD im
all en
Ġrandom ly
graph ie
ual itÃ©s
Ġdom ain
Ġocc up
Ġappropri ate
u ie
Ġd avantage
ct eurs
Ġg al
Ġch ang
pt ion
Ġapp are
Ġatt ention
spe c
Ġpens er
ĠMich el
G E
an ie
Ġ" --
Ġpro p
() [
Ġse e
ive z
ĉĉ ĉĉĉ
pre h
Ġsitu Ã©
Ġculture l
aps ack
Ġc lose
Ġre gex
ĠC H
Ġbe fore
Ġco eur
Ġrec r
Ġat el
Ġind Ã©p
tag s
ĠvÃ©hic ule
4 6
c v
Ġl ic
ass ociation
Ġpl a
con sumer
ĠÃ©t udes
Ġcomm erce
ser ve
ĠEt ats
olog iques
ĠlÃ©g Ã¨re
Ġmondi ale
Ġwrit ten
I V
I mage
U CCESS
r Ã©es
u at
} }
Ġn ord
ĠP al
Ġess ay
Ġparten aires
h a
er ies
ĠG ar
(" %
av g
Ġwe ather
Ġfr uits
Ġdur able
std err
Ġstop words
soft max
ĠRÃ©p ublique
A f
b tn
ur Ã©
im m
ĠT ree
ĠS ite
ĠM art
ĠF ound
Ġse pt
Ġset tings
Ġdist ances
Ġvie w
ĠcrÃ© dit
Ġrel ations
Ġcompl Ã©ment
Ġsus p
I X
on al
im ages
Ġv itesse
Ġb all
ĠN ouv
oc rat
Ġcar riÃ¨re
Ġperm an
Ġparf aitement
zz le
Ġsuff is
e es
in ois
Ġt elle
an im
us Ã©
ata ire
ĠN ord
ĠW HERE
ial ize
alis me
Ġman age
Ġfab ric
exist s
S orted
a vec
l on
y a
Ġp auv
ou vert
as ure
Ġbo Ã®
inter face
Ġmeille ures
Ġmajor itÃ©
Ġ ke
an alyse
he ur
Ġsuff it
> \
> ',
il an
Ġcom preh
per iment
ĠMar k
script ion
Ġ ult
ur ant
Ġm Ã©can
ro g
pr en
Ġex it
Ġex ig
Ġact ive
Ġz ones
email s
Ġdir ige
ĠÃ©tr ang
Ġt rib
ra mid
Ġob serv
Ġop Ã©ration
Ġspe ed
Ġstart ing
alind rom
twe ets
ĠcÃ©l Ã¨
al pha
ĠS uggest
ag ue
ci er
Ġobject if
ĠbÃ©nÃ©fic ier
5 6
put er
Ġautom at
Ġexcl us
W ord
g oogle
m and
Ġ utf
Ġre duce
pe c
ĉĉ Ċ
Ġmar ques
tem perature
ĠEl les
encode d
ĠAN D
Ġframe work
f un
o om
Ġpro pres
ĠS E
ĠM ad
() ]
Ġth Ã¨me
(' -
Ã©ri es
ĠCh aque
Ġact eurs
Re ader
Ġsol id
utilis er
Ġpol ice
Ġexpl ique
Ġiter tools
Ġdess us
Acc uracy
ĠTfidf Vectorizer
I A
p k
Ġd r
ir Ã©
Ġcon serv
Ġcompr end
rec ord
oit ation
Ġgros s
4 7
S A
c y
Ġm unicip
ĠC ap
Ġce pendant
ph p
Ġcl in
** *
Ġposs Ã¨de
Ġcoup le
67 33
ĠEm ployee
sign al
ĠFranÃ§ ois
ĠWAR RAN
a iled
c Ã©
k y
Ġp ierre
if ies
ĠS ub
me di
Ġse mbl
Ġcont rol
mo ire
Ġsh op
Ġ} );
Ġmus ic
De f
s ocket
Ġl u
Ġde velop
Ã¨ nes
di ents
Ġtr ou
ex erc
Ġkey words
Ãªte ments
task s
Me ans
HT TP
ĠdÃ©ch ets
an i
an o
Ġan gle
pl us
ĠA ff
Ġ[ âĢ¦]
ex pr
Ġmod erne
Ġcons ac
ces sed
minist ration
det ails
Ph one
NAM E
M P
V iew
s leep
Ġp iscine
Ġc ach
Ġf all
al th
un is
ĠS ch
Ġcon form
Ġh a
Ġ0 7
col lection
Ġeff ets
Ġ-- -
jout er
n odes
Ã© di
Ġun it
Ġar m
ain te
Ã©t ais
Ġpart age
20 16
ĠrÃ©alis ation
Ġregard er
) *
P T
n aire
Ã¨ che
Ġj et
ĠD el
con vert
Ġfind ing
ĠcrÃ© Ã©
lu str
Ġpath s
Ġpat ients
Ġcompl Ã¨te
ĠmÃ©t ier
Ġplate forme
Ġbroy eur
s id
Ġs el
al iment
ĠF em
ĠĠĠĠĠĠĠĠĠĠĠĠĠĠĠĠ ĠĠĠĠĊ
aire ment
Ġclass ique
Ã©g Ã©t
Ġpan ne
ĠprotÃ©g er
Ġ{} ,
IN T
Ġrece voir
Ġfab rication
maz on
indust rie
N N
in Ã©e
Ġs amples
ist ics
iv ation
ite cture
ĠN ame
ĠN ote
Ġfa ible
Ã©r Ã©e
Ġex press
Ġpart out
Ġlet tre
Ġloc aux
ĠprÃ©sent er
Ġincl uding
Ġintern ationale
: ])
} ".
Â «
on ds
Ġf ou
Ġla zy
Ġun sorted
ĠA c
Ġcl Ã©
Ġsum mary
ĠIn t
po ol
Ã§ ant
Ġaff ich
Pro cess
ĠmÃ©th ode
Ġclo th
Ġpartici per
starts with
/ "
c b
p ital
on ly
Ġt es
at rice
am el
ĠF ab
av id
row ser
Ġquel qu
ĠNum ber
ĠcatÃ©gor ie
4 1
c ustom
p ages
Ġa ime
iv ely
ir th
ag ent
ign Ã©
Ġarr Ãªt
mo vies
set up
ĠURL s
Ġretr ouve
D S
p ush
} '
ic o
ĠD ate
ĠM Ãªme
em ple
au ff
text s
Ġmin im
ĠSt art
Ġsup Ã©rieur
des c
Ġperm utation
ĠCl ub
Ġindivid ual
Ġhabit ants
Ġgratu ite
ĠrÃ©f lex
Che ck
? :
P ol
h ors
ne ighbors
ĠrÃ© el
gr ound
Ġport es
Ġpouv ons
Mod ule
h ere
h alf
Ġde me
ĠC alcul
com b
Ġout re
ici els
Ġver re
Ġcontin uer
ĠdÃ©p end
Ġanci en
Ġvide o
Ġd ix
Ġa it
at ors
Ġv aleurs
Ġpour su
Ġ[ -
ĠG en
Ġ6 4
Ã©n om
Ġdis cr
Ġlog in
Ġrespons abilitÃ©
4 6733
l ation
Ġt omb
un k
Ġ0 5
ĠI P
ci de
cl usters
"] .
Ġtemp Ã©rature
square d
ĠtÃ©l Ã©v
P y
x ion
it ant
Ġm ob
Ġb it
ĠA R
out er
ex ception
Ġper du
ĠQ ui
Ġ15 0
Ġavant ages
Ch ild
aff aires
den ominator
AG E
Ġgratu itement
combin ations
+ '
F T
P RO
k yc
re lease
re views
ou er
Ġis ol
ĠIn itial
ER R
ari at
25 5
US ER
Ġn ation
ĠG o
ĠR ou
Ġsyst Ã¨mes
Ġquant ity
Ġsymb ol
ĠagrÃ© able
Ġjur id
Ñ Ģ
Ġ icon
ĠĠĠĠ ĠĊ
ĠC ir
ien nes
Ġpart s
Ġra di
Ġarray s
Ġconn ais
Ġag ain
ĠTr Ã¨s
Ġcompt er
d ownload
g y
Ġa gric
Ġb elles
pl ib
ad min
pt r
mo ins
Ġk il
sh uffle
let s
En d
Ġfonction ne
Ġrece ived
Ap ple
Ġcommenc Ã©
Pl ayer
Ġsimil arity
l ent
Ġp Ã©d
an oi
iv Ã©e
oc ab
Ġsub st
Ġobject ifs
Ġcap able
Ġport er
Ġpat ient
ĠspÃ©ci al
Ġfourn ir
onom ie
h am
i ant
Ġm n
Ã¨ tes
ĠrÃ© ussi
ient Ã´t
Ġter m
Ġprocess ing
group s
IL ITY
al phabet
ul ent
ĠD o
Ġch art
ĠÃ© vent
ult es
Ġth row
ĠSt ore
Ġparticul ar
doc s
Ġstat ut
Ġsuccess ful
Ġcustom ers
intÃ©r Ãªt
Ġdoll ars
p our
Ġd en
ra ine
Ġre views
im eter
Ġ' ))
Ġh ier
per atures
Ġpre uve
Ġobject ive
Ġconvert s
Ġjou e
sm allest
Ġordin ateur
B ody
Ġd ang
Ġc ube
ar c
Ġin format
ĠP uis
Ġto ol
Ġex am
aut o
av es
requ ired
Ġsau v
ĠrÃ©gul iÃ¨rement
g enerator
t it
Ġ ray
and box
Ġpl antes
ĠdÃ© tails
Ġas ync
Ġ4 8
Ġcomp at
ĠdÃ©f aut
off re
Ġgard er
C G
J ava
U p
en glish
Ġb Ã©b
ad resse
Ġcl air
rÃ© al
Ġtot alement
Ġvis ion
Ġoptim al
ĠreprÃ©s ente
charact er
ĠvidÃ© os
) ])
Ġ ^
re gex
ĠT HE
Ġcon texte
ĠR est
Ãª ter
Ġtra ce
Ġ4 2
Ġ* =
Ġfil les
Ġtable au
IT E
ĠĠĠĠĠĠĠĠĠĠĠĠĠĠĠĠĠĠĠĠĠĠĠĠĠĠĠĠĠĠĠĠ ĠĠ
Se quential
ĠrÃ©du ction
Ġlut te
sig moid
se c
Ġon line
ĠAv ant
P R
re a
Ġl iqu
int Ã©gr
pl oad
ĠĠĠĠĠĠĠĠĠĠĠĠĠĠĠĠ ĠĠĠĠ
In d
Ġoff rir
Ġsom me
Ġcaract Ã¨re
Ġfich iers
ĠDÃ©c ouvrez
p as
es ar
al g
ch est
port un
Ġ[ ...]
Ġfa ite
ow el
ex c
Ġsp ace
ave z
uv es
AS S
Ġcomb at
Ġeng ine
ĠcinÃ© ma
. ",
= %
i Ã©e
o ft
w a
Ġv illes
Ġr yth
Ġto ile
iss on
pos Ã©
Ġent iÃ¨rement
ĠdiffÃ©r ence
Ġtoken ize
Ġdivis or
S m
s a
Ġg agn
Ġal lem
ĠÃ©t ude
ĠRe cher
Ġnouv el
Ãī tat
Ġexp ert
b ed
Ġsc he
og ique
Ġmin i
Ã´ mes
Ġ? ?
ici elle
Ġgra dient
Al l
Ġgo Ã»t
regist er
p ad
ĠP o
th ree
ĠB o
ĠR uss
pon ents
Ġent ier
alis Ã©s
=" ")
Ġsm art
Ġtrouver ez
Ġstate ment
B e
T otal
Y Z
f ect
is ent
Ġth ird
Ġne eded
au de
app ar
ĠAr gs
Ġmulti pl
Ġprov o
gen e
hÃ©s itez
Ġgreat est
\ \
h Ã©r
ĠP ass
Ġb ain
Ġla v
ab b
Ġcon d
aut or
Ġmo vies
rid ge
je ction
ĠGr Ã¢ce
Ã©conom ie
P os
U D
Ġ ],
is her
Ġf Ã©d
ĠP L
ort s
ass urer
ĠV i
onn Ã©
Ġlo gement
Ġprin cipe
ĠtÃ©lÃ© charger
( .*
R andom
T able
c ard
Ġt andis
ĠĠĠĠĠĠĠĠĠĠĠĠĠĠĠĠ ĠĠĠĠĠ
ail les
ob t
Ġper te
Ã©n agement
path s
ĠSt ack
Ġt urn
Ġc tx
ul Ã©
Ġweb page
Num bers
uff er
Ġcalcul ator
ÂłÂł ÂłÂł
ĠComp ile
Ġnormal ize
bas ed
ĠmÃ©dec in
Ġperd re
ĠDecision TreeClassifier
Ġth ese
Ġfin alement
stru ctions
Ġind is
Ġfab ri
Ġrep as
Ġmagas in
Ġl our
Ġc le
Ġm ac
th read
ĠM ER
Ġam i
Ã©v olution
Ġyear s
P UT
Ġl ater
Ġf era
Ġdes ired
Ġj oin
lo ir
ĠG a
Ġfa ute
Ã©r iment
Ã©t abl
20 18
col s
ĠÃ©v o
Ġpublic s
Ġcombin ation
Ġfig ure
[ ['
g pu
on ction
re v
ĠC SV
Ġfor mes
Ġ# #
') ]
]) ):
ial s
