{"<s>":0,"<pad>":1,"</s>":2,"<unk>":3,"<mask>":4,"!":5,"\"":6,"#":7,"$":8,"%":9,"&":10,"'":11,"(":12,")":13,"*":14,"+":15,",":16,"-":17,".":18,"/":19,"0":20,"1":21,"2":22,"3":23,"4":24,"5":25,"6":26,"7":27,"8":28,"9":29,":":30,";":31,"<":32,"=":33,">":34,"?":35,"@":36,"A":37,"B":38,"C":39,"D":40,"E":41,"F":42,"G":43,"H":44,"I":45,"J":46,"K":47,"L":48,"M":49,"N":50,"O":51,"P":52,"Q":53,"R":54,"S":55,"T":56,"U":57,"V":58,"W":59,"X":60,"Y":61,"Z":62,"[":63,"\\":64,"]":65,"^":66,"_":67,"`":68,"a":69,"b":70,"c":71,"d":72,"e":73,"f":74,"g":75,"h":76,"i":77,"j":78,"k":79,"l":80,"m":81,"n":82,"o":83,"p":84,"q":85,"r":86,"s":87,"t":88,"u":89,"v":90,"w":91,"x":92,"y":93,"z":94,"{":95,"|":96,"}":97,"~":98,"¡":99,"¢":100,"£":101,"¤":102,"¥":103,"¦":104,"§":105,"¨":106,"©":107,"ª":108,"«":109,"¬":110,"®":111,"¯":112,"°":113,"±":114,"²":115,"³":116,"´":117,"µ":118,"¶":119,"·":120,"¸":121,"¹":122,"º":123,"»":124,"¼":125,"½":126,"¾":127,"¿":128,"À":129,"Á":130,"Â":131,"Ã":132,"Ä":133,"Å":134,"Æ":135,"Ç":136,"È":137,"É":138,"Ê":139,"Ë":140,"Ì":141,"Í":142,"Î":143,"Ï":144,"Ð":145,"Ñ":146,"Ò":147,"Ó":148,"Ô":149,"Õ":150,"Ö":151,"×":152,"Ø":153,"Ù":154,"Ú":155,"Û":156,"Ü":157,"Ý":158,"Þ":159,"ß":160,"à":161,"á":162,"â":163,"ã":164,"ä":165,"å":166,"æ":167,"ç":168,"è":169,"é":170,"ê":171,"ë":172,"ì":173,"í":174,"î":175,"ï":176,"ð":177,"ñ":178,"ò":179,"ó":180,"ô":181,"õ":182,"ö":183,"÷":184,"ø":185,"ù":186,"ú":187,"û":188,"ü":189,"ý":190,"þ":191,"ÿ":192,"Ā":193,"ā":194,"Ă":195,"ă":196,"Ą":197,"ą":198,"Ć":199,"ć":200,"Ĉ":201,"ĉ":202,"Ċ":203,"ċ":204,"Č":205,"č":206,"Ď":207,"ď":208,"Đ":209,"đ":210,"Ē":211,"ē":212,"Ĕ":213,"ĕ":214,"Ė":215,"ė":216,"Ę":217,"ę":218,"Ě":219,"ě":220,"Ĝ":221,"ĝ":222,"Ğ":223,"ğ":224,"Ġ":225,"ġ":226,"Ģ":227,"ģ":228,"Ĥ":229,"ĥ":230,"Ħ":231,"ħ":232,"Ĩ":233,"ĩ":234,"Ī":235,"ī":236,"Ĭ":237,"ĭ":238,"Į":239,"į":240,"İ":241,"ı":242,"Ĳ":243,"ĳ":244,"Ĵ":245,"ĵ":246,"Ķ":247,"ķ":248,"ĸ":249,"Ĺ":250,"ĺ":251,"Ļ":252,"ļ":253,"Ľ":254,"ľ":255,"Ŀ":256,"ŀ":257,"Ł":258,"ł":259,"Ń":260,"ĠĠ":261,"ĠĠĠĠ":262,"es":263,"in":264,"Ġd":265,"on":266,"en":267,"er":268,"Ġa":269,"re":270,"Ġp":271,"Ġs":272,"Ġl":273,"Ã©":274,"Ġt":275,"ĠĠĠ":276,"Ġc":277,"at":278,"or":279,"ou":280,"an":281,"is":282,"it":283,"ar":284,"Ġde":285,"Ġ=":286,"le":287,"ent":288,"Ġf":289,"et":290,"ur":291,"el":292,"Ġm":293,"ion":294,"qu":295,"as":296,"ĠĠĠĠĠĠĠ":297,"Ġn":298,"al":299,"he":300,"Ġin":301,"ro":302,"ct":303,"ra":304,"un":305,"Ġre":306,"de":307,"im":308,"um":309,"il":310,"om":311,"Ġthe":312,"Ġv":313,"Ġr":314,"ut":315,"ing":316,"se":317,"st":318,"est":319,"if":320,"ĠP":321,"Ġb":322,"ĠT":323,"ic":324,"ĠĠĠĠĠĠĠĠ":325,"te":326,"Ġla":327,"):":328,"ĠC":329,"Ġo":330,"ĠĊ":331,"ate":332,"th":333,"our":334,"ist":335,"Ġqu":336,"ĠÃ":337,"ge":338,"am":339,"Ġet":340,"Ġg":341,"ce":342,"Ġle":343,"int":344,"us":345,"ment":346,"Ġan":347,"Ġ1":348,"Ġto":349,"Ġ\"":350,"ation":351,"iv":352,"Ġen":353,"Ġun":354,"ort":355,"Ġ'":356,"ĠÃł":357,"ul":358,"urn":359,"Ġret":360,"ir":361,"Ġe":362,"ch":363,"ers":364,"Ġw":365,"Ġpr":366,"elf":367,"ĠL":368,"ask":369,"Ġfor":370,"ot":371,"Ġreturn":372,"Ġpro":373,"yth":374,"ython":375,"ol":376,"pr":377,"ont":378,"Ġles":379,"Ġdes":380,"Ã¨":381,"ant":382,"ĠTask":383,"ĠĠĠĠĠĠĠĠĠĠĠ":384,"ite":385,"ri":386,"ord":387,"Ġof":388,"Ġst":389,"Ġ(":390,"Ġ2":391,"ĠS":392,"ĠPython":393,"Ġj":394,"ction":395,"port":396,"id":397,"ve":398,"--":399,"Ġ#":400,"pl":401,"ig":402,"ie":403,"ous":404,"Ġpar":405,"ans":406,"Ġif":407,"ring":408,"ĠA":409,"Ġnum":410,"od":411,"ap":412,"ab":413,"and":414,"def":415,"ĠD":416,"ess":417,"os":418,"ne":419,"ass":420,"âĢ":421,"ad":422,"me":423,"Ġand":424,"ĠM":425,"end":426,"ue":427,"Ġcom":428,"ac":429,"Ġpour":430,"import":431,"Ġ[":432,"Ġcon":433,"ata":434,"age":435,"que":436,"Ġch":437,"ame":438,"Ġma":439,"Ġ+":440,"ĠÃ©":441,"ire":442,"',":443,"()":444,"lo":445,"ux":446,"Ġdu":447,"pt":448,"Ġself":449,"Ã©s":450,"ĠF":451,"out":452,"Ġh":453,"Ġpl":454,"Ġ0":455,"Ġse":456,"xt":457,"ine":458,"ult":459,"put":460,"Ġth":461,"pe":462,"res":463,"Ġar":464,"gra":465,"##":466,"ĠI":467,"di":468,"ode":469,"ĠdÃ©":470,"Ġ-":471,"__":472,"rom":473,"ĠE":474,"00":475,"ĠB":476,"ver":477,"))":478,"Ġque":479,"reate":480,"ter":481,"ag":482,"ci":483,"Ġune":484,"op":485,"Ġlist":486,"Ġis":487,"ĠG":488,"lement":489,"\",":490,"gram":491,"ĠN":492,"âĢĻ":493,"ĠR":494,"Ġprint":495,"Ġest":496,"list":497,"Ġne":498,"Ġsur":499,"Ġ:":500,"Ġdans":501,"print":502,"ib":503,"..":504,"num":505,"ange":506,"Ġnumb":507,"self":508,"oun":509,"Ġ==":510,"Ġi":511,"Ã©e":512,"('":513,"for":514,"ure":515,"(\"":516,"iz":517,"Ġal":518,"em":519,"ile":520,"ique":521,"Ġfa":522,"Ġy":523,"Ġau":524,"Ġprogram":525,"ay":526,"ub":527,"Ġas":528,"ind":529,"lass":530,"word":531,"Ġel":532,"Ġqui":533,"Ġstring":534,"ke":535,"Ġ3":536,"au":537,"ĠCreate":538,"ence":539,"les":540,"ĠW":541,"ain":542,"Ġres":543,"Ġ{":544,"ith":545,"==":546,"ĠrÃ©":547,"ais":548,"ier":549,"Ġdef":550,"':":551,"')":552,"----":553,"name":554,"urs":555,"Ġpas":556,"Ã©r":557,"odel":558,"Ġrange":559,"ĠĠĠĠĠĠĠĠĠĠĠĠĠĠĠ":560,"oc":561,"ance":562,"ĠÂ":563,"ime":564,"string":565,"Ġex":566,"app":567,"iven":568,"itÃ©":569,"Ġthat":570,"Ġplus":571,"ien":572,"art":573,"Ġtr":574,"ht":575,"Ġdata":576,"ff":577,"ount":578,"up":579,"ener":580,"Ġvous":581,"Ġgiven":582,"ed":583,"Ãª":584,"vec":585,"ĠO":586,"du":587,"ĠJ":588,"Ġou":589,"data":590,"ĠV":591,"ore":592,"com":593,"']":594,"Ġimport":595,"all":596,"Ġword":597,"Ġcont":598,"one":599,"ow":600,"Ġlen":601,"Ġnot":602,"ray":603,"ice":604,"\")":605,"unction":606,"con":607,"ait":608,"rite":609,"Ġ20":610,"tre":611,"Ġus":612,"ive":613,"ĠĠĠĠĠĠĠĠĠĠĠĠĠĠĠĠ":614,"Ġ5":615,"to":616,"ĠĠĊ":617,"val":618,"Ġavec":619,"ail":620,"arr":621,"Ġce":622,"get":623,"ect":624,"able":625,"act":626,"ost":627,"ard":628,"ert":629,"ons":630,"aut":631,"ient":632,"from":633,"andom":634,"Ġtra":635,"enerate":636,"\":":637,"Ġ4":638,"\"\"":639,"####":640,"Ã¨re":641,"item":642,"str":643,"ions":644,"ĠU":645,"form":646,"Ã¨s":647,"Ġx":648,"ens":649,"Ã©t":650,"enc":651,"Ġsc":652,"oup":653,"ang":654,"par":655,"['":656,"ize":657,"key":658,"ins":659,"Ġval":660,"ations":661,"oir":662,"Ġil":663,"Ġfunction":664,"Ġnumber":665,"ex":666,"og":667,"elle":668,"cc":669,"ques":670,"ase":671,"ĠÃ©t":672,"len":673,"ple":674,"ath":675,"Ġpe":676,"Ġav":677,"ĠLe":678,"ois":679,"ill":680,"Ġje":681,"ĠH":682,"Ġap":683,"av":684,"ies":685,"ign":686,"ary":687,"Ġmax":688,"pon":689,"per":690,"Ġresult":691,"Ġelse":692,"Ġ<":693,"ck":694,"],":695,"])":696,"Ġser":697,"Ġwith":698,"ph":699,"Ã©es":700,"Ġsu":701,"ob":702,"Ġfrom":703,"ĠWrite":704,"ise":705,"quest":706,"ors":707,"Ġnumbers":708,"Ġarr":709,"Ġpart":710,"aire":711,"text":712,"append":713,"cl":714,"Ġor":715,"ace":716,"che":717,"ille":718,"Ġ+=":719,"Ġgr":720,"ps":721,"mb":722,"its":723,"Ġ%":724,"ale":725,"Ġclass":726,"Ġsont":727,"ouv":728,"Ġchar":729,"Ġon":730,"onn":731,"Ġ*":732,"Ġra":733,"),":734,"Ġpre":735,"Ġwh":736,"rue":737,"ext":738,"ong":739,"Ġper":740,"iss":741,"pos":742,"ript":743,"Ġcomm":744,"Ġ!":745,"pro":746,"ette":747,"ma":748,"Ã©c":749,"ix":750,"urr":751,"une":752,"Ġad":753,"Ġrandom":754,"otre":755,"air":756,"dict":757,"Ġcode":758,"els":759,"ĠLa":760,"ted":761,"Ġ>":762,"Ġcol":763,"ĉĉ":764,"Ġent":765,"low":766,"Ġall":767,"tra":768,"Ġinput":769,"Ġro":770,"Ġcl":771,"Ġout":772,"ial":773,"aux":774,"Ġ10":775,"model":776,"ide":777,"test":778,"numb":779,"arg":780,"ip":781,"ser":782,"Ġson":783,"gth":784,"ĠDe":785,"ak":786,"Ġme":787,"Ġmin":788,"cul":789,"Ġaut":790,"Ġ__":791,"====":792,"Ã©ri":793,"url":794,"ject":795,"ĠÂ«":796,"Ġbe":797,"...":798,"dex":799,"tt":800,"ack":801,"ype":802,"Ġ201":803,").":804,"ents":805,"ition":806,"rÃ©":807,"Ġtw":808,"Ġnous":809,"ĠĠĠĠĊ":810,"--------":811,"ours":812,"Ġsum":813,"Ġim":814,"Ġmo":815,"Ġmais":816,"Ġ6":817,"class":818,"Ġarray":819,"Ġso":820,"Ġ[]":821,"Ġmodel":822,"ĠĠĠĠĠ":823,"Ġstr":824,"ession":825,"Ã´":826,"ust":827,"Ã©n":828,"Ġtout":829,"ĠÂ»":830,"Ġvotre":831,"Ġ/":832,"arch":833,"Ġget":834,"mo":835,"Ġrequest":836,"ues":837,"Ġche":838,"ĠLes":839,"eur":840,"Ġaux":841,"Ġmat":842,"Ġ8":843,"tr":844,"ach":845,"alcul":846,"gor":847,"ĠEn":848,"words":849,"pre":850,"Ġk":851,"Ġwe":852,"Ġelement":853,"are":854,"Ġpass":855,"iques":856,"son":857,"Ġfind":858,"iff":859,"alse":860,"ĠâĢ":861,"ĠIn":862,"ld":863,"po":864,"py":865,"Ġint":866,"Ġdis":867,"oo":868,"mes":869,"plit":870,"Ġmet":871,"ui":872,"use":873,"Ġpos":874,"ĠIl":875,"ity":876,"Ġnew":877,"20":878,"anc":879,"ures":880,"gr":881,"uss":882,"sc":883,"iÃ¨re":884,"Ġtwo":885,"mat":886,"Ġdi":887,"ants":888,"vel":889,"Ġob":890,"][":891,"Ġsent":892,"Ġwords":893,"Ġ7":894,"ponse":895,"min":896,"iment":897,"Ġsa":898,"Ġit":899,"Ġsh":900,"Ã©l":901,"Ġname":902,"ication":903,"add":904,"met":905,"uis":906,"arn":907,"Ġtem":908,"iel":909,"ast":910,"Ġtext":911,"():":912,"ense":913,"Ġmon":914,"Ġcount":915,"cept":916,"Ġset":917,"='":918,"oy":919,"train":920,"result":921,"ud":922,"Ã§":923,"Ġnp":924,"oute":925,"Ġkey":926,"ml":927,"Ġusing":928,"ai":929,"**":930,"Ġsy":931,"Ġ?":932,"In":933,"ĠGenerate":934,"Ãł":935,"ight":936,"//":937,"ern":938,"########":939,"ouve":940,"Ġitem":941,"util":942,"Ġdat":943,"Ġprodu":944,"ich":945,"init":946,"we":947,"ages":948,"Ġgenerate":949,"Ġpython":950,"Ġbien":951,"cess":952,"10":953,"oin":954,"ER":955,"orted":956,"onne":957,"ft":958,"ari":959,"ven":960,"input":961,"ify":962,"ubl":963,"Ã©g":964,"Ġem":965,"vert":966,"Ġfil":967,"Ġ}":968,"Ġcette":969,"vent":970,"ĠNone":971,"Ġpo":972,"ments":973,"Ġpers":974,"aires":975,"ĠTrue":976,"alculate":977,"Ġ9":978,"ĠÃª":979,"Ġsub":980,"Ġsort":981,"Ãªme":982,"ry":983,"ĠK":984,"ĠThe":985,"Ġuser":986,"ĠĠĠĠĠĠĠĠĠĠĠĠĠĠĠĠĠĠĠ":987,"Ġ|":988,"sum":989,"Ġcomme":990,"Ġacc":991,"urrent":992,"ĠCh":993,"ĠFalse":994,"ES":995,"Ġcomp":996,"ible":997,"Ġfait":998,"Ġsi":999,"count":1000,"Ġvalue":1001,"itle":1002,"ĠCom":1003,"essage":1004,"bo":1005,"alis":1006,"ret":1007,"Ġscript":1008,"__(":1009,"ook":1010,"head":1011,"ature":1012,"Ġenc":1013,"ON":1014,"Ġinter":1015,"Ġ\"\"\"":1016,"Ġdiff":1017,"split":1018,"ĠQ":1019,"path":1020,"ctions":1021,"Ġlong":1022,"velop":1023,"sent":1024,"verse":1025,"Ġmar":1026,"array":1027,"Ġfaire":1028,"Ġont":1029,"Ġmod":1030,"hod":1031,"Ġelif":1032,"=\"":1033,"ussi":1034,"Ġtak":1035,"Ġact":1036,"ild":1037,"err":1038,"ree":1039,"file":1040,"set":1041,"ates":1042,"ices":1043,"Ġam":1044,"Ã¢":1045,"ĠÃªtre":1046,"ec":1047,"rib":1048,"Ġadd":1049,"Ġare":1050,"Ġweb":1051,"ĠJe":1052,"ken":1053,"numbers":1054,"Ġses":1055,"Ġtest":1056,"([":1057,"Ġ19":1058,"Ġtakes":1059,"Ġcar":1060,"gorith":1061,"Ã©d":1062,"Ġph":1063,"gorithm":1064,"ĠdÃ©c":1065,"bre":1066,"main":1067,"row":1068,"ande":1069,"ly":1070,"ample":1071,"iers":1072,"max":1073,"Ġpeut":1074,"://":1075,"cs":1076,"ĠPar":1077,"endre":1078,"Ġcons":1079,"ĠDes":1080,"jet":1081,"index":1082,"iÃ¨":1083,"char":1084,"Ġentre":1085,"Ġtot":1086,"date":1087,"ell":1088,"ĠCon":1089,"Ġopt":1090,"fit":1091,"rix":1092,"ĠÃ©tÃ©":1093,")):":1094,"ences":1095,"ĠRe":1096,"vice":1097,"Re":1098,"Ġcharact":1099,"Ġfin":1100,"ctor":1101,"Ġtrav":1102,"Ġconf":1103,"Ġalgorithm":1104,"Ġoutput":1105,"Ġby":1106,"Ġend":1107,"elles":1108,"requ":1109,"Ġleur":1110,"Ġrequests":1111,"ran":1112,"Ġcreate":1113,"col":1114,"Ġ{}":1115,"sh":1116,"Ġaussi":1117,"ĠtrÃ¨s":1118,"read":1119,"ayer":1120,"oi":1121,"Ġsk":1122,"Ã®":1123,"cont":1124,"ute":1125,"ident":1126,"Ġcan":1127,"Ġsol":1128,"ĠmÃªme":1129,"Ġup":1130,"ww":1131,"Ã´t":1132,"Ġpeu":1133,"ds":1134,"ĠprÃ©s":1135,"St":1136,"lect":1137,"move":1138,"dit":1139,"IN":1140,"Ġdo":1141,"Ġ,":1142,"Ġtrans":1143,"ule":1144,"value":1145,"Ġcheck":1146,"ifier":1147,"Ġarg":1148,"ution":1149,"his":1150,"prÃ¨s":1151,"Ġco":1152,"Ġcalculate":1153,"Ġdire":1154,"learn":1155,"mp":1156,"itu":1157,"length":1158,"Ġbo":1159,"Ġfile":1160,"Ġtotal":1161,"irst":1162,"imum":1163,"utput":1164,"ner":1165,"user":1166,"ats":1167,"find":1168,"teg":1169,"ctionary":1170,"Ġcurrent":1171,"Ġsp":1172,"Ġdeux":1173,"Ġnom":1174,"ĠSt":1175,"========":1176,"Ġces":1177,"Ġcor":1178,"Ġeff":1179,"ler":1180,"ould":1181,"vie":1182,"utilis":1183,"ST":1184,"itÃ©s":1185,"ĠPour":1186,"Ġass":1187,"alement":1188,"tes":1189,"Ġman":1190,"onac":1191,"Ġinto":1192,"Ġstrings":1193,"onc":1194,"rit":1195,"ĠprÃ©":1196,"Ġrec":1197,"format":1198,"comm":1199,"ĠPr":1200,"number":1201,"ays":1202,"ound":1203,"onacci":1204,"ibonacci":1205,"Ġdev":1206,"Ġrow":1207,"Ġext":1208,"Ġwhile":1209,"ock":1210,"ator":1211,"Ġsans":1212,"cher":1213,"izer":1214,"Ġfon":1215,"Ġtrain":1216,"Ġfl":1217,"Ġann":1218,"Ġeach":1219,"ante":1220,"stru":1221,"Ġsklearn":1222,"ick":1223,"igne":1224,"\"\"\"":1225,"The":1226,"html":1227,"Ġlength":1228,"Ġapp":1229,"Ġvis":1230,"ere":1231,"Ġatt":1232,"ains":1233,"ument":1234,"oire":1235,"ĠâĢĵ":1236,"ĠrÃ©s":1237,"let":1238,"Ġmethod":1239,"lab":1240,"ĠOutput":1241,"fin":1242,"ente":1243,"ĠX":1244,"isse":1245,"Ġuse":1246,"Ġpd":1247,"ourn":1248,"Ġpoint":1249,"ĠBe":1250,"Ġfol":1251,"type":1252,"cript":1253,"ug":1254,"Ġsup":1255,"\"]":1256,"âĢ¦":1257,"orm":1258,"Ġtous":1259,"Ġsim":1260,"ici":1261,"Ġop":1262,"Ġat":1263,"Ġvers":1264,"Ã»":1265,"ery":1266,"Ġdist":1267,"Ġ200":1268,"igh":1269,"Ġprem":1270,"Ġline":1271,"my":1272,"True":1273,"items":1274,"iste":1275,"Ġans":1276,"ĠUn":1277,"rig":1278,"ales":1279,"ces":1280,"Ġsorted":1281,"Ġconc":1282,"Ġobject":1283,"fo":1284,"log":1285,"Ġspe":1286,"Ġpersonn":1287,"Ġlib":1288,"EN":1289,"Ġter":1290,"tern":1291,"ines":1292,"Ġnotre":1293,"htt":1294,"----------------":1295,"12":1296,"node":1297,"AT":1298,"Ġord":1299,"Ġvos":1300,"Ġab":1301,"ĠPro":1302,"aine":1303,"Ġtime":1304,"line":1305,"Ġpubl":1306,"ric":1307,"Ġinteg":1308,"Ġinst":1309,"Ã¨me":1310,"ables":1311,"pass":1312,"Ġsou":1313,"Ġrap":1314,"\".":1315,"Ġlo":1316,"ĠQu":1317,"ello":1318,"''":1319,"random":1320,"Ġbas":1321,"alitÃ©":1322,"nums":1323,"Ġquel":1324,"Ġelements":1325,"db":1326,"Ġjson":1327,"iver":1328,"PI":1329,"title":1330,"ax":1331,"ink":1332,"umn":1333,"Ġshould":1334,"LE":1335,"place":1336,"lection":1337,"time":1338,"Ġart":1339,"size":1340,"Ġfollow":1341,"dd":1342,"ource":1343,"of":1344,"aset":1345,"uit":1346,"RE":1347,"ĠY":1348,"Ġdictionary":1349,"Ġ12":1350,"ils":1351,"sort":1352,"plic":1353,"ouver":1354,"Ġreturns":1355,"Ġhe":1356,"ann":1357,"ulti":1358,"000":1359,"Ġ15":1360,"action":1361,"Ġsentence":1362,"Ġte":1363,"arget":1364,"Ġindex":1365,"bl":1366,"sub":1367,"Ġpet":1368,"csv":1369,"fe":1370,"Ġprof":1371,"Ġposs":1372,"Ġdep":1373,"Ġ!=":1374,"bin":1375,"ros":1376,"quence":1377,"rance":1378,"join":1379,"Ġfe":1380,"ĠAn":1381,"ork":1382,"amp":1383,"atus":1384,"ble":1385,"plication":1386,"ative":1387,"acc":1388,"Ġ_":1389,"ave":1390,"Ġcert":1391,"Ġthis":1392,"Ġcel":1393,"En":1394,"Ġpol":1395,"Ġz":1396,"ract":1397,"Ġvo":1398,"ress":1399,"AR":1400,"ency":1401,"element":1402,"rr":1403,"Ġrest":1404,"des":1405,"Ġpermet":1406,"Ġfollowing":1407,"ĠSe":1408,"rop":1409,"Ġvie":1410,"start":1411,"Ġstart":1412,"att":1413,"Ġelle":1414,"ĠDesign":1415,"]:":1416,"())":1417,"Ġ)":1418,"Ġoff":1419,"Ġrepr":1420,"Ġconn":1421,"Ġresponse":1422,"ateur":1423,"ĠAl":1424,"[:":1425,"ĠCe":1426,"ys":1427,"comp":1428,"opt":1429,"orte":1430,"Ġprime":1431,"ĠrÃ©g":1432,"aient":1433,"Ġreverse":1434,"Ġtemps":1435,"ĠÃ©g":1436,"Ġlog":1437,"Ġlui":1438,"Ġcap":1439,"ield":1440,"Ġdiv":1441,"vir":1442,"ances":1443,"iqu":1444,"Ġ`":1445,"Ġgra":1446,"ape":1447,"Ġpassword":1448,"Ġvalues":1449,"'])":1450,"ĠEt":1451,"json":1452,"Ġdonn":1453,"atures":1454,"Ġsal":1455,"ating":1456,"Ġ.":1457,"code":1458,"ia":1459,"sp":1460,"Ġind":1461,"Ġgrand":1462,"Ġmer":1463,"iful":1464,"Ġlet":1465,"ĠcrÃ©":1466,"Ġtravail":1467,"Ã©ra":1468,"ites":1469,"autiful":1470,"Ġcas":1471,"Ġos":1472,"Ġ['":1473,"AN":1474,"olog":1475,"ber":1476,"ez":1477,"Ġrem":1478,"Ġ{'":1479,"Ġyou":1480,"fil":1481,"Ġrel":1482,"Ġnon":1483,"ets":1484,"Ġtype":1485,"tem":1486,"Ġsoci":1487,"state":1488,"Ġfirst":1489,"List":1490,"Ġtou":1491,"Ã¹":1492,"Ġsearch":1493,"pect":1494,"################":1495,"iter":1496,"Ġnode":1497,"Ġwhich":1498,"Ġform":1499,"Ã©v":1500,"Ġtable":1501,"mbre":1502,"asse":1503,"Ġ11":1504,"Ġutilis":1505,"load":1506,"Soup":1507,"co":1508,"token":1509,"autifulSoup":1510,"Ġport":1511,"eurs":1512,"uild":1513,"rou":1514,"Ġpage":1515,"Ġbet":1516,"Ġremove":1517,"response":1518,"insi":1519,"Ġsecon":1520,"ref":1521,"opul":1522,"ome":1523,"Ġdern":1524,"Ġlongest":1525,"ween":1526,"Ġnos":1527,"Ġac":1528,"password":1529,"entre":1530,"ector":1531,"acy":1532,"lib":1533,"ĠAr":1534,"ĠBeautifulSoup":1535,"SE":1536,"lst":1537,"icle":1538,"ault":1539,"Ġsite":1540,"Ġsous":1541,"Ġdem":1542,"ieux":1543,"sentence":1544,"amb":1545,")]":1546,"oice":1547,"Ġconvert":1548,"ah":1549,"inter":1550,"Ġhas":1551,"Ġavant":1552,"ĠMar":1553,"ĠDevelop":1554,"args":1555,"rand":1556,"Ġid":1557,"lu":1558,"ustom":1559,"Ġmes":1560,"Ġencore":1561,"</":1562,"Ġnumpy":1563,"ther":1564,"rror":1565,"orld":1566,"ĠFl":1567,"Ġloc":1568,"io":1569,"uer":1570,"Ġvari":1571,"ade":1572,"[\"":1573,"ms":1574,"Ġmal":1575,"Ġtemp":1576,"ĠgÃ©n":1577,"Ġactiv":1578,"Ġbetween":1579,"vers":1580,"'.":1581,"gan":1582,"eras":1583,"].":1584,"'s":1585,"ĠVous":1586,"ieu":1587,"ĠÃ©galement":1588,"esp":1589,"UR":1590,"Ġcharacters":1591,"indow":1592,"Ġfois":1593,"req":1594,"ied":1595,"tk":1596,"ples":1597,"new":1598,"right":1599,"by":1600,"Ġwill":1601,"pose":1602,"ake":1603,"Ġpath":1604,"Ġ100":1605,"itial":1606,"ear":1607,"ĠNous":1608,"cription":1609,"Ġcou":1610,"ĠĠĠĠĠĠĠĠĊ":1611,"trans":1612,"root":1613,"Ġstore":1614,"Ġno":1615,"board":1616,"Ġlors":1617,"message":1618,"Ġnombre":1619,"estion":1620,"ĠFrance":1621,"uracy":1622,"aque":1623,"Ġ18":1624,"Ġpost":1625,"Ġdonc":1626,"ches":1627,"abase":1628,"endant":1629,"ĠoÃ¹":1630,"Ġdoc":1631,"Ãªt":1632,"dir":1633,"Ġmulti":1634,"erc":1635,"ĠÃ©v":1636,"ET":1637,"Ġoptim":1638,"loc":1639,"ision":1640,"ception":1641,"next":1642,"Ġpartic":1643,"Ġsyst":1644,"Ġproduct":1645,"IT":1646,"enir":1647,"Ġdataset":1648,"oci":1649,"ranÃ§":1650,"ĠmÃ©":1651,"Ãªte":1652,"own":1653,"agn":1654,"ole":1655,"Ġparam":1656,"ises":1657,"inst":1658,"mble":1659,"ĠEl":1660,"OR":1661,"Ġemail":1662,"Ġ25":1663,"Ġtu":1664,"Ġconst":1665,"Ġpat":1666,"ĠUne":1667,"ĠMais":1668,"jour":1669,"uv":1670,"ĠPl":1671,"cle":1672,"Error":1673,"der":1674,"Ġ;":1675,"Ġmoins":1676,"Ġunique":1677,"iÃ©":1678,"nement":1679,"Ġ30":1680,"gh":1681,"verage":1682,"Ġprints":1683,"Ġcour":1684,"Ġnouv":1685,"Ã©tÃ©":1686,"ifs":1687,"ĠsÃ©":1688,"score":1689,"Ġleurs":1690,"Ġorder":1691,"ĠSi":1692,"ĠOn":1693,"Ġainsi":1694,"loat":1695,"Ġ...":1696,"imes":1697,"mer":1698,"Ġmessage":1699,"return":1700,"df":1701,"ivre":1702,"Ġmont":1703,"ilitÃ©":1704,"angu":1705,"vez":1706,"Ãªtre":1707,"pression":1708,"chn":1709,"._":1710,"jours":1711,"Ġdont":1712,"ee":1713,"da":1714,"rois":1715,"ores":1716,"ives":1717,"enu":1718,"su":1719,"hor":1720,"pond":1721,"Ġfra":1722,"example":1723,"Ġag":1724,"AL":1725,"avoir":1726,"Ġclient":1727,"Ġmaximum":1728,"Ġmy":1729,"oh":1730,"ipe":1731,"ical":1732,"yn":1733,"values":1734,"Hello":1735,"Ġdepuis":1736,"Ġtoute":1737,"ĠdÃ©b":1738,"21":1739,"ĠĠĠĠĠĠĠĠĠĠĠĠĠĠĠĠĠĠĠĠĠĠĠ":1740,"Ġprov":1741,"ames":1742,"ĠaprÃ¨s":1743,"Ġdro":1744,"Ġboard":1745,"Ġinform":1746,"ĠEx":1747,"Ġplace":1748,"point":1749,"Ġperm":1750,"Ġcommun":1751,"argest":1752,"Ġurl":1753,"Ġcho":1754,"duct":1755,"position":1756,"ender":1757,"Ġcomment":1758,"Ġbon":1759,"Ġmonde":1760,"river":1761,"Ġju":1762,"dat":1763,"ĠRet":1764,"Ġimp":1765,"Ã©lÃ©":1766,"ĠThis":1767,"Ġsentiment":1768,"Name":1769,"Ġlab":1770,"plot":1771,"isation":1772,"requency":1773,"ody":1774,"graph":1775,"ĠĠĠĠĠĠĠĠĠ":1776,"Ġhead":1777,"ual":1778,"Ġtarget":1779,"Ġreg":1780,"Ġprix":1781,"ated":1782,"RO":1783,"String":1784,"rect":1785,"Ġdou":1786,"raw":1787,"Ġcontre":1788,"ouvez":1789,"50":1790,"ov":1791,"aly":1792,"ĠdiffÃ©r":1793,"Ġnouve":1794,"ĠPrint":1795,"100":1796,"fig":1797,"Ġdate":1798,"ification":1799,"ploy":1800,"ĠAu":1801,"left":1802,"gression":1803,"oss":1804,"Ġsoup":1805,"Ġdom":1806,"ific":1807,"30":1808,"Ġâ":1809,"object":1810,"ude":1811,"yp":1812,"rait":1813,"ond":1814,"iens":1815,"Ã©ment":1816,"Ġ[\"":1817,"play":1818,"ĠAPI":1819,"Ġ16":1820,"error":1821,"strings":1822,"Ġjour":1823,"ider":1824,"Ġintegers":1825,"Ġroot":1826,"ren":1827,"ĠÃ§":1828,"AC":1829,"Ġavoir":1830,"Ġbl":1831,"ango":1832,"ĠĠĠĠĠĠĠĠĠĠĠĠĠĠĠĠĠĠĠĠĠĠĠĠĠĠĠĠĠĠĠĠ":1833,"rid":1834,"rain":1835,"Ch":1836,"Ġits":1837,"Ġpuis":1838,"'))":1839,"cre":1840,"label":1841,"Ġmatrix":1842,"Ġcharacter":1843,"Ġsoit":1844,"Ġtoujours":1845,"encont":1846,"ĠÃ©tait":1847,"Ġfr":1848,"choice":1849,"www":1850,"uments":1851,"antes":1852,"part":1853,"Ġrun":1854,"cture":1855,"Ġsera":1856,"ĠÃ§a":1857,"rome":1858,"uel":1859,"Ġcompr":1860,"ik":1861,"ltk":1862,"Ġ'__":1863,"__':":1864,"Ġbeau":1865,"11":1866,"Ġage":1867,"lower":1868,"odes":1869,"ĠDans":1870,"¿½":1871,"ï¿½":1872,"ĠdÃ©s":1873,"az":1874,"Ġone":1875,"work":1876,"Ġvol":1877,"oul":1878,"Ġgre":1879,"eter":1880,"Åĵ":1881,"Un":1882,"lob":1883,"process":1884,"Ġfonction":1885,"utes":1886,"run":1887,"Ġpouv":1888,"plt":1889,"ĠChe":1890,"Ġany":1891,"Id":1892,"Ġpays":1893,"Ġformat":1894,"ranÃ§ais":1895,"Ġlow":1896,"Ġbase":1897,"Ãī":1898,"Ġprojet":1899,"....":1900,"info":1901,"25":1902,"ategor":1903,"ton":1904,"Ġ13":1905,"inary":1906,"This":1907,"view":1908,"aÃ®":1909,"esent":1910,"era":1911,"rans":1912,"Ġexp":1913,"Ġcolumn":1914,"https":1915,"Ġvalid":1916,"predict":1917,"her":1918,"alind":1919,"Ġfem":1920,"prime":1921,"ateurs":1922,"Ġtoutes":1923,"ĠĠĠĠĠĠ":1924,"api":1925,"andas":1926,"Ġsuis":1927,"ĠÃī":1928,"Ġdatabase":1929,"Ġprocess":1930,"Ġtechn":1931,"19":1932,"esse":1933,"Ġprin":1934,"Ġ<=":1935,"Ġcommand":1936,"lock":1937,"sorted":1938,"Ġnums":1939,"Ġmain":1940,"isme":1941,"Ġ14":1942,"ql":1943,"Ġdur":1944,"Ġcela":1945,"write":1946,"Ġver":1947,"ĠÃ©l":1948,"ĠdÃ©f":1949,"ĠÃ©c":1950,"etime":1951,"ĠFlask":1952,"mar":1953,"ron":1954,"Ġservice":1955,"Ġextract":1956,"Ġsecond":1957,"fer":1958,"be":1959,"nect":1960,"Ġmeille":1961,"Ġhtt":1962,"Ġcal":1963,"'}":1964,"Ã©rie":1965,"ĠdÃ©velop":1966,"Ġquelques":1967,"Ġalors":1968,"Ġpossible":1969,":\",":1970,"TI":1971,"Ġsign":1972,"ending":1973,"iÃ¨res":1974,"fr":1975,"Ġmost":1976,"reg":1977,"price":1978,"prise":1979,"ecute":1980,"Ġbre":1981,"rat":1982,"Ġcv":1983,"Ġopen":1984,"oto":1985,"Ġpu":1986,"aur":1987,"posit":1988,"Ã©ci":1989,"ĠÃ©qu":1990,"ĠIf":1991,"Ġrev":1992,"ĠprÃ©c":1993,"'],":1994,"Num":1995,"ss":1996,"search":1997,"illes":1998,"DE":1999,"cip":2000,"Ġjou":2001,"Ġcr":2002,"Ġnltk":2003,"eau":2004,"================":2005,"Ġpopul":2006,"ieurs":2007,"Ġspec":2008,"Ġtitle":2009,"ars":2010,"Ġautres":2011,"ĠprÃ©sent":2012,"igits":2013,"Ġ17":2014,"ĠSa":2015,"ized":2016,"essionn":2017,"Ġfac":2018,"content":2019,"Ġsom":2020,"Ġfaut":2021,"lay":2022,"agne":2023,"lem":2024,"IS":2025,"Ġ\"\"":2026,"Ġocc":2027,"ĠGet":2028,"ts":2029,"coup":2030,"idth":2031,"Ġlibr":2032,"Ġloop":2033,"ater":2034,"Ġcontain":2035,"Ġhaut":2036,"Ġincl":2037,"Ġvi":2038,"matrix":2039,"ivers":2040,"aines":2041,"Ġclassify":2042,"An":2043,"valu":2044,"Ġvra":2045,"Ġenf":2046,"Ġcomput":2047,"page":2048,"Ġ('":2049,"email":2050,"Ġpandas":2051,"Ĥ¬":2052,"istes":2053,"Ġconse":2054,"','":2055,"Ar":2056,"Ġjus":2057,"otal":2058,"ename":2059,"opy":2060,"pons":2061,"Ġ\",":2062,"ohn":2063,"ĠTo":2064,"Ġ&":2065,"ĠCl":2066,"dist":2067,"uses":2068,"rir":2069,"Ġright":2070,"conn":2071,"Ġmois":2072,"man":2073,"Ġlst":2074,"status":2075,"Ġmethods":2076,"Ġins":2077,"Ġread":2078,"param":2079,"dition":2080,"rie":2081,"Ġpredict":2082,"omm":2083,"Ġ//":2084,"oupe":2085,"Ġils":2086,"ursor":2087,"jango":2088,"rough":2089,"nes":2090,"Ġsm":2091,"ĠFibonacci":2092,"]]":2093,"Ġhave":2094,"Ġve":2095,"Ġ@":2096,"Ġaff":2097,"ager":2098,"Ġcontin":2099,"Ġren":2100,"tag":2101,"Ġover":2102,"elon":2103,"Ġ\\":2104,"lose":2105,"ĠdÃ©j":2106,"Ġmem":2107,"Ġthrough":2108,"enne":2109,"Ã©m":2110,"Ġscra":2111,"64":2112,"rame":2113,"ves":2114,"Âł":2115,"Ġcours":2116,"pty":2117,"Ġbr":2118,"Ġrencont":2119,"ep":2120,"Ġpropos":2121,"output":2122,"Ġchez":2123,"else":2124,"ML":2125,"ĠrÃ©alis":2126,"struct":2127,"ison":2128,"Ġgu":2129,"Ġfam":2130,"vices":2131,"cor":2132,"with":2133,"Ġrequ":2134,"Pro":2135,"Ġpouvez":2136,");":2137,"Al":2138,"Ġgrat":2139,"anguage":2140,"((":2141,"ustomer":2142,"ana":2143,"=['":2144,"parser":2145,"Ġparticul":2146,"alindrome":2147,"ital":2148,"Ġavait":2149,"ID":2150,"Ġcompte":2151,"15":2152,"Ġleft":2153,"Ġpublic":2154,"Ġperform":2155,"parse":2156,"Ġdoit":2157,"Val":2158,"site":2159,"Ġversion":2160,"Ġcommon":2161,"ccess":2162,"Ã©ration":2163,"Ġcoup":2164,"Ġtry":2165,"arning":2166,"AB":2167,"rer":2168,"book":2169,"PO":2170,"md":2171,"wh":2172,"Ġ**":2173,"Ġcent":2174,"Ġprofessionn":2175,"Ġcontent":2176,"fl":2177,"ĠReturn":2178,"Ġsitu":2179,"Ġ\")":2180,"ory":2181,"Ġpeuvent":2182,"qual":2183,"udi":2184,"entes":2185,"old":2186,"rypt":2187,"ume":2188,"imal":2189,"Ġbut":2190,"Ġhigh":2191,"Ġrecher":2192,"Ġligne":2193,"Ġjust":2194,"Ġbreak":2195,"ior":2196,"eters":2197,"Ġexcept":2198,"Ġmom":2199,"Ġva":2200,"Ġexem":2201,"ache":2202,"ired":2203,"Ã©rieur":2204,"Ġeven":2205,"Ġother":2206,"Ġchaque":2207,"Ġgar":2208,"ules":2209,"leurs":2210,"Ġmus":2211,"ash":2212,"Ġ},":2213,"back":2214,"ension":2215,"table":2216,"Ã©qu":2217,"Ġquery":2218,"Ġargs":2219,"Ġtf":2220,"Ġbes":2221,"Ġsuiv":2222,"Ġsys":2223,"Ġmarch":2224,"aces":2225,"ditions":2226,"enant":2227,"Ġvoir":2228,"conom":2229,"ĠHT":2230,"Ġautre":2231,"Ġjusqu":2232,"Ġinv":2233,"ked":2234,"Ã©p":2235,"autres":2236,"quare":2237,"Ġbeaucoup":2238,"div":2239,"itialize":2240,"iser":2241,"Ġresults":2242,"http":2243,"ĠZ":2244,"idÃ©":2245,"UT":2246,"200":2247,"Ġscore":2248,"Se":2249,"owels":2250,"To":2251,"Ġdirect":2252,"Ġtrois":2253,"Ġ[[":2254,"viron":2255,"!!":2256,"request":2257,"Ġplayer":2258,"Ġplusieurs":2259,"Ġinstall":2260,"Ġpersonnes":2261,"valid":2262,"Ġmach":2263,"Ġapplication":2264,"vi":2265,"ĉĉĉ":2266,"Ġproduits":2267,"Ã¨res":2268,"Ġjours":2269,"Class":2270,"Ġmag":2271,"Ġtree":2272,"Ġdict":2273,"ĠNe":2274,"Ġchau":2275,"Ġquand":2276,"rol":2277,"product":2278,"ĠfranÃ§ais":2279,"Ġposition":2280,"Ġpoints":2281,"Ġcomple":2282,"Ġorgan":2283,"ibles":2284,"atique":2285,"cent":2286,"Ġfound":2287,"aiss":2288,"22":2289,"Ġident":2290,"ified":2291,"ĠdÃ©jÃł":2292,"ings":2293,"Ġitems":2294,"Ġtoken":2295,"(),":2296,"Ġpartie":2297,"Ġfilter":2298,"af":2299,"host":2300,"Ġoper":2301,"ull":2302,"ectorizer":2303,"ger":2304,"Ġcall":2305,"ĠÂ»,":2306,"org":2307,"ission":2308,"Ġmatch":2309,"Ġlargest":2310,"Ġcontact":2311,"Ġletter":2312,"anger":2313,"ement":2314,"Ġ--":2315,"icense":2316,"eff":2317,"Ġcurr":2318,"Ġthan":2319,"angle":2320,"Ġgen":2321,"Ġpolit":2322,"Ġaur":2323,"amment":2324,"dictions":2325,"Ġparf":2326,"vous":2327,"erci":2328,"ĠCette":2329,"AS":2330,"Ġdit":2331,"ĠAp":2332,"tement":2333,"Ã»t":2334,"ĠElle":2335,"Ġcher":2336,"map":2337,"occ":2338,"ĠlÃ©g":2339,"Ġmill":2340,"14":2341,"pte":2342,"ĠLo":2343,"itement":2344,"().":2345,"Ġpremier":2346,"Ġmid":2347,"vis":2348,"32":2349,"ounter":2350,"ĠParis":2351,"16":2352,"Ġcre":2353,"Ġmot":2354,"Ġstru":2355,"ĠIm":2356,"Ġtour":2357,"ĠTh":2358,"Ġ24":2359,"Ġparse":2360,"RL":2361,"Ġsouv":2362,"Ġtop":2363,"omme":2364,"dian":2365,"post":2366,"Ġ50":2367,"Enter":2368,"Ġintern":2369,"cal":2370,"Ġcompl":2371,"Ġtit":2372,"Ã©cess":2373,"layers":2374,"doc":2375,"gl":2376,"so":2377,"tail":2378,"Ġlink":2379,"ĠCheck":2380,"udent":2381,"ish":2382,"Ġnive":2383,"stri":2384,"Ex":2385,"Ġpy":2386,"Ã¨ne":2387,"query":2388,"]))":2389,"Ġbinary":2390,"uff":2391,"Ġsais":2392,"ded":2393,"Ġwrite":2394,"Ġlim":2395,"Ġsavoir":2396,"sol":2397,"rez":2398,"Data":2399,"ĠnÃ©cess":2400,"Ġmake":2401,"Ã©f":2402,"iles":2403,"Ġmean":2404,"34":2405,"ational":2406,"Ġsimple":2407,"Ġtheir":2408,"zer":2409,"},":2410,"issement":2411,"imize":2412,"Ġmoy":2413,"mid":2414,"phone":2415,".\"":2416,"IC":2417,"aries":2418,"ius":2419,"('/":2420,"lete":2421,"route":2422,"total":2423,"jourd":2424,"li":2425,"env":2426,"hui":2427,"Ġfer":2428,"ĠqualitÃ©":2429,"Ġafin":2430,"Ġprice":2431,"Ġnext":2432,"Ġposit":2433,"Ġmoment":2434,"Ġaverage":2435,"tect":2436,"ĠURL":2437,"Ġinteger":2438,"Ġcur":2439,"long":2440,"apt":2441,"rique":2442,"off":2443,"Ġsens":2444,"Ġmode":2445,"mi":2446,"Ġcet":2447,"Ġcalcul":2448,"mean":2449,"Ġess":2450,"pert":2451,"Ġchange":2452,"ipp":2453,"Ġdf":2454,"rier":2455,"ĠÂ».":2456,"Ġquestion":2457,"Ġbs":2458,"Ġdest":2459,"Ġsource":2460,"Ġnouveau":2461,"Ġhand":2462,"None":2463,"abil":2464,"\",\"":2465,"config":2466,"ĠpremiÃ¨re":2467,"tree":2468,"Ġsequence":2469,"Ġmoi":2470,"bot":2471,"Ġsize":2472,"randint":2473,"Ġnature":2474,"Ã©b":2475,"Ġpetit":2476,"False":2477,"ĠdÃ©p":2478,"ane":2479,"igin":2480,"ally":2481,"sy":2482,"Ġexist":2483,"Res":2484,"Ġfactor":2485,"ctu":2486,"leur":2487,"python":2488,"Ġbou":2489,"Ġavons":2490,"Ġprobl":2491,"Ġactivation":2492,"Ã¯":2493,"Ġcro":2494,"Ġgrande":2495,"Ġdb":2496,"eb":2497,"Ġnet":2498,"Ġtrouver":2499,"ĠWorld":2500,"Ġeur":2501,"Ġsuite":2502,"ĠtÃ©lÃ©":2503,"Ġgo":2504,"group":2505,"Â»":2506,"Ġmaint":2507,"US":2508,"Ġgame":2509,"99":2510,"Ã©cur":2511,"kens":2512,"Ġnouvelle":2513,"quent":2514,"Ġ21":2515,"Ġhist":2516,"33":2517,"AM":2518,"ank":2519,"rage":2520,"Ġmaison":2521,"keras":2522,"led":2523,"Ġexpl":2524,"execute":2525,"box":2526,"plicates":2527,"Ġ>=":2528,"fix":2529,"illet":2530,"IL":2531,"mÃ©":2532,"ply":2533,"oud":2534,"je":2535,"Ġsame":2536,"cii":2537,"dis":2538,"lev":2539,"mon":2540,"common":2541,"ote":2542,"models":2543,"ĠspÃ©ci":2544,"face":2545,"ĠÃĢ":2546,"Ġsouh":2547,"ĠĠĠĠĠĠĠĠĠĠĠĠĠ":2548,"ĠNode":2549,"Ġyour":2550,"Ġmerge":2551,"Ġprincip":2552,"Ġavez":2553,"ĠannÃ©es":2554,"ormal":2555,"Ġ22":2556,"Ġstock":2557,"pri":2558,"Ġcomb":2559,"keys":2560,"18":2561,"Ġlast":2562,"pop":2563,"Ġrespons":2564,"ĠDef":2565,"ĠPre":2566,"fÃ©r":2567,"Ġtrop":2568,"Ġminimum":2569,"Ġfloat":2570,"Ġjourn":2571,"ypes":2572,"Ġexemple":2573,"Ġlists":2574,"mplement":2575,"Field":2576,"Ġtag":2577,"tres":2578,"ĠCan":2579,"Le":2580,"Ġcir":2581,"etch":2582,"CT":2583,"ides":2584,"ords":2585,"ĠDriver":2586,"({":2587,"ey":2588,"ges":2589,"Â°":2590,"Ġvisite":2591,"replace":2592,"Ġimplement":2593,"current":2594,"--------------------------------":2595,"ization":2596,"Ġdocument":2597,"ED":2598,"abl":2599,"Ġvoy":2600,"Ġmachine":2601,"Ġdefault":2602,"Ġple":2603,"ols":2604,"Ġtk":2605,"Ġconfig":2606,"ienne":2607,"17":2608,"nent":2609,"Ġplan":2610,"Regression":2611,"antÃ©":2612,"Ġused":2613,"Ġli":2614,"Ã¨le":2615,"Ġflask":2616,"itude":2617,"ention":2618,"ĠdÃ©veloppe":2619,"ĠIN":2620,"Ġdistance":2621,"ope":2622,"Ġ-=":2623,"Ġdatetime":2624,"Ġchois":2625,"Ġcontains":2626,"``":2627,"uf":2628,"range":2629,"Ã´le":2630,"Ġfrequency":2631,"ards":2632,"Ġeffic":2633,"Ġref":2634,"TP":2635,"sequence":2636,"cr":2637,"Ã¢ce":2638,"Par":2639,"freq":2640,"pred":2641,"Ġupdate":2642,"SON":2643,"dia":2644,"Ġarea":2645,"Ġesp":2646,"Ġeffet":2647,"ĠSaint":2648,"Ġdiffer":2649,"ĠlÃł":2650,"ĠCar":2651,"ulture":2652,"gre":2653,"pat":2654,"Ġbook":2655,"image":2656,".__":2657,"Ġmettre":2658,"Ġ'''":2659,"Ġenfants":2660,"pack":2661,"Ġville":2662,"aff":2663,"dius":2664,"Ã§on":2665,"OM":2666,"gative":2667,"ĠFunction":2668,"Ġsn":2669,"utions":2670,"ĠOpt":2671,"Ġservices":2672,"Ġinformation":2673,"cursor":2674,"ĠImplement":2675,"Ġrapide":2676,"Ġniveau":2677,"ination":2678,"Ġiter":2679,"ox":2680,"imer":2681,"John":2682,"Ġdim":2683,"sez":2684,"Ġgroupe":2685,"Ġmark":2686,"elsius":2687,"ascii":2688,"Ġpendant":2689,"ural":2690,"Ġmieux":2691,"ambda":2692,"Type":2693,"{}":2694,"De":2695,"elp":2696,"Ġbonne":2697,"ĠAut":2698,"Ã©rer":2699,"agram":2700,"transform":2701,"Ġfeatures":2702,"Ġhab":2703,"Ġ2020":2704,"ends":2705,"anci":2706,"Ġquick":2707,"Ġrecherche":2708,"ush":2709,"Ġhum":2710,"idx":2711,"Ġrapport":2712,"icles":2713,"quer":2714,"iÃ¨me":2715,"ĠsystÃ¨me":2716,"diction":2717,"Ġcolor":2718,"Ġaddress":2719,"Ġprendre":2720,"rÃ©e":2721,"ĠmÃ©t":2722,"ause":2723,"Ġpouvoir":2724,"temp":2725,"oires":2726,"server":2727,"Ġ28":2728,"Ġwebsite":2729,"Ġsolution":2730,"shape":2731,"Ġdernier":2732,"tant":2733,"ĠdÃ©l":2734,"ublic":2735,"ĠConstruct":2736,"mod":2737,"Ġdemande":2738,"Dense":2739,"Ġpartir":2740,"CH":2741,"close":2742,"LO":2743,"ĠComment":2744,"Ġcelui":2745,"elements":2746,"Ġempty":2747,"Ġauc":2748,"Ġappr":2749,"Ġgroup":2750,"Ġlearning":2751,"Ġaccuracy":2752,"ming":2753,"sl":2754,"ĠVal":2755,"Ġselon":2756,"umer":2757,"\"))":2758,"mail":2759,"urer":2760,"cending":2761,"link":2762,"Ġdroit":2763,"Ġenv":2764,"Ġdivis":2765,"rec":2766,"Number":2767,"Ġsuper":2768,"Ġci":2769,"ĠÃ©lect":2770,"Ġrien":2771,"ĠdÃ©m":2772,"01":2773,"Ġbest":2774,"Ġvoit":2775,"Ġfactorial":2776,"ĠsÃ©cur":2777,"Ġ2018":2778,"order":2779,"Ġdefine":2780,"version":2781,"ids":2782,"hist":2783,"ĠDE":2784,"resh":2785,"ather":2786,"phab":2787,"Ġlinear":2788,"td":2789,"tml":2790,"ields":2791,"ĠDefine":2792,"ighb":2793,"rate":2794,"body":2795,"0000":2796,"Ġdemand":2797,"Ġeu":2798,"Ġfont":2799,"Ġappro":2800,"requent":2801,"Ġpersonne":2802,"amais":2803,"features":2804,"bug":2805,"create":2806,"Ġrespect":2807,"gment":2808,"lim":2809,"Ġmis":2810,"ources":2811,"rics":2812,"Ġclassifier":2813,"Ġonly":2814,"alance":2815,"Ġhtml":2816,"spe":2817,"lease":2818,"ĠSh":2819,"ĠcÃ´t":2820,"ĠLicense":2821,"Ġpa":2822,"cret":2823,"Ġconstru":2824,"ĠÃ©p":2825,"open":2826,"Ġbased":2827,"ze":2828,"Ġdec":2829,"cteur":2830,"Ġu":2831,"lections":2832,"Ġkeras":2833,"Ġmise":2834,"Ġ199":2835,")))":2836,"exp":2837,"24":2838,"Ġlieu":2839,"Ġfourn":2840,"Ġarticle":2841,"bres":2842,"ĠSer":2843,"rap":2844,"lambda":2845,"Ġmath":2846,"ĠSu":2847,"Ġfibonacci":2848,"Ġdisplay":2849,"ĠHTML":2850,"ĠPh":2851,"oll":2852,"Ġ40":2853,"method":2854,"ĠdÃ©but":2855,"tel":2856,"Ġnotamment":2857,"yle":2858,"arge":2859,"Pr":2860,"ose":2861,"ĠreprÃ©s":2862,"vol":2863,"riÃ¨re":2864,"allest":2865,"ek":2866,"Ġfut":2867,"case":2868,"tout":2869,"[-":2870,"Ġdp":2871,"anv":2872,"Ġcontaining":2873,"Ġporte":2874,"Ġ(\"":2875,"Ġ2019":2876,"Ġici":2877,"Ã©ro":2878,"Ġ''":2879,"################################":2880,"Ġpriv":2881,"Ġant":2882,"resse":2883,"Ġfais":2884,"13":2885,"ĠvÃ©r":2886,"Ġjamais":2887,"child":2888,"Ġrou":2889,"Ġcollect":2890,"Ġautom":2891,"Element":2892,"Ġgener":2893,"Ġceux":2894,"Ġaccess":2895,"anche":2896,"Classifier":2897,"ics":2898,"OT":2899,"Ġupper":2900,"ĠCalculate":2901,"udes":2902,"Ġbout":2903,"Ġpopulation":2904,"POST":2905,"Ġach":2906,"utton":2907,"ĠbÃ©n":2908,"Ġamount":2909,"Ġhttp":2910,"Ġsouvent":2911,"flow":2912,"ogle":2913,"iÃ¨rement":2914,"Ġsci":2915,"Ġ',":2916,"stem":2917,"Ġcost":2918,"ĠTest":2919,"valuate":2920,"base":2921,"ĠĠĠĠĠĠĠĠĠĠĠĠ":2922,"inked":2923,"Ġetc":2924,"Ġobt":2925,"command":2926,"Ġplt":2927,"ters":2928,"attr":2929,"heit":2930,"charact":2931,"Ġrepresent":2932,"Ġprovide":2933,"ware":2934,"Ã©tait":2935,"ĠrÃ©gion":2936,"xx":2937,"Ġ')":2938,"Ġparent":2939,"Ġ2017":2940,"venir":2941,"Ġmodule":2942,"ENT":2943,"Ġcad":2944,"****":2945,"Ġtask":2946,"ionn":2947,"Ser":2948,"Ġlanguage":2949,"Ġ23":2950,"cell":2951,"ĠdonnÃ©es":2952,"address":2953,"Ġsubstring":2954,"Ġthem":2955,"connect":2956,"renheit":2957,"rent":2958,"Ġris":2959,"ĠâĤ¬":2960,"UN":2961,"inÃ©":2962,"ĠMon":2963,"EL":2964,"ĠpiÃ¨":2965,"upper":2966,"ĠInitialize":2967,"ologie":2968,".\")":2969,"check":2970,"uc":2971,"Ġtri":2972,"ivent":2973,"ĠgÃ©nÃ©r":2974,"Ġserver":2975,"ĠCont":2976,"Ġlibrary":2977,"AP":2978,"soup":2979,"perature":2980,"Ġodd":2981,"Con":2982,":]":2983,"oding":2984,"regist":2985,"Ġlabels":2986,"sv":2987,"Ġense":2988,"ires":2989,"igit":2990,"roy":2991,"Ġretr":2992,"ĠĠĠĠĠĠĠĠĠĠĠĠĠĠĠĠĠĠĠĠĠĠĠĠĠĠĠ":2993,"Ġjeu":2994,"accuracy":2995,"prises":2996,"oit":2997,"unes":2998,"mine":2999,"Ġdetect":3000,"dec":3001,"ights":3002,"aite":3003,"ĠFor":3004,"Ġreste":3005,"ivot":3006,"Ġtant":3007,"arm":3008,"quoi":3009,"'):":3010,":-":3011,"Ġproduit":3012,"omb":3013,"Ġbesoin":3014,"onnement":3015,"ĠrÃ©sult":3016,"ĠIter":3017,"cies":3018,"Ġfemmes":3019,"Ġstructure":3020,"Ġdispon":3021,"width":3022,"lex":3023,"lett":3024,"').":3025,"RI":3026,"Ġeng":3027,"Ġcertains":3028,"aster":3029,"Ġrece":3030,"inear":3031,"Ġorigin":3032,"Ã¨mes":3033,"Ġcombin":3034,"atif":3035,"Ġstate":3036,"activ":3037,"auth":3038,"ĠÃ©conom":3039,"Ġparameters":3040,"oint":3041,"Ġliv":3042,"ĠTrans":3043,"unc":3044,"Ġjsonify":3045,"Ġ$":3046,"ĠAdd":3047,"Ġproc":3048,"Ġinsert":3049,"ava":3050,"ares":3051,"Ã¨g":3052,"respond":3053,"Ġcat":3054,"gress":3055,"instance":3056,"ivid":3057,"ader":3058,"Ġyear":3059,"Ġprom":3060,"ĠdÃ©cl":3061,"ĠJSON":3062,"ensor":3063,"Ġsommes":3064,"Ġsql":3065,"ctob":3066,"Ġvowels":3067,"Ġmil":3068,"ĠBuild":3069,"Ġchoix":3070,"ĠmarchÃ©":3071,"digits":3072,"ĠTrain":3073,"Ġconditions":3074,"lobal":3075,"Ã©ch":3076,"ĠCode":3077,"Ġdistrib":3078,"gen":3079,"Ġstack":3080,"obil":3081,"Ġraise":3082,"ĠGu":3083,"np":3084,"uelle":3085,"EM":3086,"ION":3087,"pol":3088,"Ġcontr":3089,"Ne":3090,"Ġ26":3091,"year":3092,"Ġcustomer":3093,"ĠmÃ©d":3094,"Ġattrib":3095,"Ġdiffic":3096,"Ġaction":3097,"ĠdÃ©couv":3098,"net":3099,"relu":3100,"arity":3101,"Ġdess":3102,"erv":3103,"Ġthen":3104,"Ġoptions":3105,"Ġvraiment":3106,"ÂłÂł":3107,"QL":3108,"Ġexpression":3109,"Ġphoto":3110,"ctory":3111,"phabet":3112,"Ġforme":3113,"ĠrÃ©du":3114,"Ġcorrespond":3115,"window":3116,"target":3117,"lean":3118,"uration":3119,"ueil":3120,"Ġface":3121,"first":3122,"ibilitÃ©":3123,"ira":3124,"allet":3125,"la":3126,"ĠMake":3127,"Ġbuild":3128,"filter":3129,"Ġpolitique":3130,"rc":3131,"itt":3132,"encode":3133,"Ġ2016":3134,"CO":3135,"Ġmore":3136,"Ġseu":3137,"not":3138,"ful":3139,"longest":3140,"erg":3141,"player":3142,"cd":3143,"ok":3144,"description":3145,"ĠMont":3146,"ĠdÃ©veloppement":3147,"Ġfond":3148,"ĠsantÃ©":3149,"Ġtake":3150,"ĠUs":3151,"Ġ000":3152,"remove":3153,"selection":3154,"Ġminutes":3155,":',":3156,"ict":3157,"ration":3158,"cap":3159,"oe":3160,"})":3161,"Ġbar":3162,"ports":3163,"ĠgrÃ¢ce":3164,"utations":3165,"ercase":3166,"Ġcategor":3167,"ĠAvec":3168,"ĠUse":3169,"Aut":3170,"grid":3171,"GET":3172,"aleur":3173,"source":3174,"ĠCount":3175,"Ġsyn":3176,"pted":3177,"uple":3178,"Ġfab":3179,"ployee":3180,"Ġterr":3181,"IR":3182,"function":3183,"Value":3184,"jout":3185,"points":3186,"fact":3187,"article":3188,"suite":3189,"names":3190,"UL":3191,"Ġstat":3192,"Ã©rience":3193,"ĠintÃ©r":3194,"scores":3195,"cat":3196,"ĠrÃ©se":3197,"show":3198,"ptembre":3199,"default":3200,"Vectorizer":3201,"ettes":3202,"Ġprot":3203,"ctobre":3204,"67":3205,"Ġconne":3206,"top":3207,"quÃ©":3208,"40":3209,"Ġpens":3210,"Ġbi":3211,"Ġpattern":3212,"wo":3213,"assert":3214,"ube":3215,"Ġseul":3216,"ĠTra":3217,"Ġ2021":3218,"Cont":3219,"Ġerror":3220,"Ġcompute":3221,"Ġfiles":3222,"ESS":3223,"cost":3224,"sm":3225,"estions":3226,"Ġusers":3227,"ĠJean":3228,"Ã¨te":3229,"tokenize":3230,"isc":3231,"ĠPost":3232,"ĠpÃ©ri":3233,"ĠTout":3234,"Ġfact":3235,"uster":3236,"!\")":3237,"Ġassoci":3238,"ĠannÃ©e":3239,"oogle":3240,"pher":3241,"ĉĉĉĉ":3242,"web":3243,"vention":3244,"ones":3245,"isÃ©":3246,"std":3247,"ifi":3248,"ĠIls":3249,"column":3250,"ival":3251,"lez":3252,"Ġeffect":3253,"Ġcelle":3254,"ĠâĢĶ":3255,"cembre":3256,"ĠSplit":3257,"Ġjob":3258,"opÃ©":3259,"itaire":3260,"ether":3261,"Ġbasic":3262,"Ġdescription":3263,"ĠÃ©ch":3264,"ower":3265,"[:,":3266,"compile":3267,"Ġcell":3268,"ĠCes":3269,"Ġrencontre":3270,"Ġimage":3271,"ront":3272,"urg":3273,"ĠIterate":3274,"ian":3275,"Ġsurtout":3276,"formation":3277,"Ġhelp":3278,"qr":3279,"utf":3280,"Ġaujourd":3281,"alisation":3282,"uits":3283,"Ġpropose":3284,"ĠÐ":3285,"ĠCel":3286,"Ġquant":3287,"ĠAprÃ¨s":3288,"andard":3289,"minist":3290,"ownload":3291,"Ġchose":3292,"anvier":3293,"60":3294,"vembre":3295,"ocket":3296,"agement":3297,"Ġax":3298,"ouse":3299,"Ġappar":3300,"Ġsout":3301,"erson":3302,"Ġ27":3303,"ippet":3304,"Ġni":3305,")-":3306,"inf":3307,"Ġgros":3308,"Ġreversed":3309,"game":3310,"erie":3311,"ning":3312,"unctu":3313,"EST":3314,"Ġgreater":3315,"ige":3316,"ensemble":3317,"ril":3318,"Ġutil":3319,"Ġtravers":3320,"Ġpositive":3321,"zz":3322,"mbl":3323,"serv":3324,"Ġenviron":3325,"indre":3326,"rypted":3327,"username":3328,"Ġfit":3329,"autre":3330,"Ġinf":3331,"ĠrÃ©c":3332,"Ġress":3333,"ĠGr":3334,"Ġca":3335,"strip":3336,"'),":3337,"ĠsociÃ©tÃ©":3338,"Ġsplit":3339,"Ġseront":3340,"Ġcounts":3341,"aise":3342,"Ġfamille":3343,"Python":3344,"Ġhy":3345,"Ġsuff":3346,"ĠbÃ©nÃ©f":3347,"Ġdir":3348,"Ġlabel":3349,"Ġ]":3350,"ĠRÃ©":3351,"dim":3352,"float":3353,"wargs":3354,"Ġsau":3355,"ĠLinear":3356,"endu":3357,"linear":3358,"quential":3359,"Ġes":3360,"Ġpasse":3361,"obj":3362,"Ġsujet":3363,"ness":3364,"yc":3365,"Ġjuin":3366,"Ġcontinue":3367,"iance":3368,"ĠSet":3369,"ĠcompÃ©t":3370,"reverse":3371,"aille":3372,"letters":3373,"Ġsoir":3374,"stack":3375,"iez":3376,"Ġseptembre":3377,"ĠsÃ©curitÃ©":3378,"dep":3379,"Ġmedian":3380,"Ġanagram":3381,"Ġtraining":3382,"til":3383,"vector":3384,"Ġhost":3385,"ĠsÃ©rie":3386,"ĠIt":3387,"Ġimm":3388,"frame":3389,"ĠFind":3390,"cial":3391,"Ġlarge":3392,"Ġlay":3393,"ĠSur":3394,"ĠfaÃ§on":3395,"Ġ2015":3396,"(__":3397,"=(":3398,"Ġheures":3399,"Ã«":3400,"Ġcorrect":3401,"AD":3402,"Ap":3403,"ĠcÃ´tÃ©":3404,"alys":3405,"ĠTr":3406,"del":3407,"Ġpair":3408,"Ġ''.":3409,"issance":3410,"lig":3411,"erne":3412,"ities":3413,"Ġreplace":3414,"Ġmodels":3415,"File":3416,"insert":3417,"Ġarguments":3418,"For":3419,"Ġsing":3420,"ĠprÃ©sident":3421,"pattern":3422,"dez":3423,"Ġwhether":3424,"while":3425,"Ġvit":3426,"last":3427,"filename":3428,"dataset":3429,"ĠvidÃ©":3430,"Ġsets":3431,"unique":3432,"ference":3433,"red":3434,"abilitÃ©":3435,"Ġmai":3436,"Ġformation":3437,"Request":3438,"ĠÃ©quipe":3439,"Com":3440,"asion":3441,"omial":3442,"ĠLog":3443,"Ġconnect":3444,"80":3445,"SS":3446,"ING":3447,"feature":3448,"cours":3449,"den":3450,"sentiment":3451,"lines":3452,"oot":3453,"imp":3454,"ĠâĢ¦":3455,"Ġargument":3456,"voir":3457,"Ġpris":3458,"otos":3459,"Ġcorps":3460,"Ġ60":3461,"Cl":3462,"Ġrom":3463,"Ġpetite":3464,"Ġseulement":3465,"categor":3466,"Ġcompt":3467,"ationale":3468,"Ġtrouve":3469,"Ġ32":3470,"Ġ</":3471,"Ã©h":3472,"forme":3473,"ĠdÃ©cembre":3474,"iller":3475,"ĠmaniÃ¨re":3476,"Ġsnippet":3477,"oses":3478,"Ġpredictions":3479,"AG":3480,"Ġlat":3481,"Ġlaiss":3482,"Ġparser":3483,"generate":3484,"ĠComm":3485,"Ġappel":3486,"Ġpay":3487,"Ġconsid":3488,"Ġfemme":3489,"Ġgratuit":3490,"'t":3491,"core":3492,"istance":3493,"avant":3494,"Max":3495,"Ġequal":3496,"Ġnombreux":3497,"Ġdelete":3498,"Ġoctobre":3499,"Ġ'.":3500,"ubble":3501,"ahrenheit":3502,"Ġfix":3503,"parent":3504,"Ġvariables":3505,"Tree":3506,"Ġcrit":3507,"ĠArt":3508,"Ġsquare":3509,"Ġwhere":3510,"letter":3511,"ĠOptimize":3512,"mment":3513,"Ġfreq":3514,"Ġclients":3515,"tf":3516,"Ġgouver":3517,"bar":3518,"Ġquestions":3519,"Ġnovembre":3520,"Ġcase":3521,"Ġblog":3522,"gement":3523,"Ġoptimize":3524,"day":3525,"Ġjuillet":3526,"Ġrequired":3527,"Ġfort":3528,"Ġsystem":3529,"Ġbat":3530,"ĠLoad":3531,"Ġmars":3532,"ru":3533,"Ġretour":3534,"ĠConvert":3535,"usion":3536,"Ġtwe":3537,"ĠprÃ¨s":3538,"Ġsqlite":3539,"Ġprob":3540,"ĠAcc":3541,"Ġcadre":3542,"Ġminist":3543,"annÃ©e":3544,"Ġpasser":3545,"Ġmort":3546,"ĠAd":3547,"Ġtrue":3548,"plotlib":3549,"lat":3550,"eline":3551,"cut":3552,"Ġchild":3553,"ĠEm":3554,"Ġvariable":3555,"ength":3556,"iquer":3557,")+":3558,"Ġproch":3559,"Ġcollections":3560,"Ġkm":3561,"ĠreprÃ©sent":3562,"Ġjanvier":3563,"ĠAN":3564,"Ġfilm":3565,"iche":3566,"Ġhttps":3567,"ommes":3568,"ĠsiÃ¨":3569,"05":3570,"ellement":3571,"tails":3572,"Ġ\"))":3573,"hat":3574,"Ġcamp":3575,"na":3576,"Ġcu":3577,"dire":3578,"Ġpivot":3579,"Ġwindow":3580,"ĠĠĠĠĠĠĊ":3581,"usr":3582,"area":3583,"Ġaccept":3584,"xml":3585,"Ġ2014":3586,"hand":3587,"hello":3588,"task":3589,"organ":3590,"raction":3591,"img":3592,"sys":3593,"[::-":3594,"characters":3595,"Ġconv":3596,"Ġmove":3597,"Ġthree":3598,"ivement":3599,"client":3600,"distance":3601,"oph":3602,"Ġmovie":3603,"Ġcm":3604,"plate":3605,"params":3606,"ĠBl":3607,"ium":3608,"Ġbois":3609,"ĠMod":3610,"ĠrÃ©pond":3611,"maine":3612,"ĠdiffÃ©rents":3613,"Ġlang":3614,"Ġindi":3615,"Ġcompar":3616,"clf":3617,"Ġpack":3618,"Ġwas":3619,"Ġraison":3620,"Ġsw":3621,"Ġentreprises":3622,"ancer":3623,"pen":3624,"Ġvert":3625,"chars":3626,"any":3627,"arger":3628,"ĠĠĠĠĠĠĠĠĠĠĠĠĠĠĠĠĊ":3629,"čĊ":3630,"ploi":3631,"ĠDÃ©":3632,"Ġouv":3633,"IM":3634,"eng":3635,"ifique":3636,"Ġchauff":3637,"Ġnaturel":3638,"rice":3639,"ĠmatÃ©ri":3640,"Ġkeys":3641,"Ġconcern":3642,"Ġlibraries":3643,"alitÃ©s":3644,"Ã¨ve":3645,"Ġinc":3646,"Ġprogramme":3647,"ierre":3648,"atten":3649,"grÃ©":3650,"rist":3651,"uy":3652,"Ã©ric":3653,"local":3654,"Ġsituation":3655,"Ġcentre":3656,"Ġgraph":3657,"encies":3658,"iciel":3659,"ĠMo":3660,"Ġ{\"":3661,"Ġlivre":3662,"ĠCol":3663,"ĠIntern":3664,"Ġrows":3665,"Ġletters":3666,"install":3667,"now":3668,"amples":3669,"AF":3670,"Ġelles":3671,"labels":3672,"no":3673,"autÃ©":3674,"Ġsmallest":3675,"DF":3676,"diff":3677,"Me":3678,"amount":3679,"acitÃ©":3680,"aÃ®tre":3681,"ten":3682,"Ġculture":3683,"entreprise":3684,"uvre":3685,"Ġdigits":3686,"Ġgestion":3687,"Ġdifferent":3688,"Ġassez":3689,"Ġcharge":3690,"EX":3691,"Ã´tel":3692,"do":3693,"Ã©vrier":3694,"ĠExt":3695,"Ġtravaux":3696,"Ġarticles":3697,"Ġdonner":3698,"rel":3699,"ging":3700,"Ġpalindrome":3701,"Ġcompos":3702,"Ġsemaine":3703,"ĠNo":3704,"================================":3705,"ĠPer":3706,"Ġpresent":3707,"Ġdevant":3708,"Ġstop":3709,"ĠGiven":3710,"Ġtrouv":3711,"Ġinclude":3712,"most":3713,"ĠList":3714,"counts":3715,"Ġmaj":3716,"mÃªme":3717,"istic":3718,"Ġimportant":3719,"Ġcompare":3720,"ĠComp":3721,"Ġinformations":3722,"Ġregard":3723,"Ġpan":3724,"ĠLinearRegression":3725,"oÃ»t":3726,"alyzer":3727,"Ġquot":3728,"ĠgÃ©nÃ©ra":3729,"ĠOr":3730,"II":3731,"frequency":3732,"Ġven":3733,"ĠĠĠĊ":3734,"dom":3735,"Ġqueue":3736,"ĠGener":3737,"Ġspecific":3738,"90":3739,"ta":3740,"ĠdÃ¨s":3741,"ĠMe":3742,"agit":3743,"field":3744,"Ġparce":3745,"HO":3746,"ili":3747,"ĠâĢ¢":3748,"Ġreconn":3749,"__)":3750,"Ġmatplotlib":3751,"the":3752,"Ġindivid":3753,"Ġparticip":3754,"ĠthÃ©":3755,"uil":3756,"Ġrender":3757,"Ġbel":3758,"author":3759,"Ġton":3760,"Ġback":3761,"Ġ2012":3762,"Ġjuste":3763,"vironnement":3764,"42":3765,"Trans":3766,"Ġfunctions":3767,"Ã©lior":3768,"Ġmesure":3769,"ĠproblÃ¨me":3770,"termin":3771,"mode":3772,"Ġaf":3773,"ĠĠĠĠĠĠĠĠĠĠĠĠĊ":3774,"Ġ\"__":3775,"update":3776,"Ġprev":3777,"eux":3778,"access":3779,"Ġserait":3780,"ĠYou":3781,"âĤ¬":3782,"entiel":3783,"Ġchat":3784,"Ã©rÃ©":3785,"Sum":3786,"Ġgens":3787,"Ġprofit":3788,"andid":3789,"section":3790,"dio":3791,"Col":3792,"wer":3793,"Ġnormal":3794,"Ġsouhaite":3795,"ting":3796,"txt":3797,"cessary":3798,"ĠeuropÃ©":3799,"ling":3800,"ots":3801,"Ġseen":3802,"__\":":3803,"aissance":3804,"unctuation":3805,"cur":3806,"Ġdonne":3807,"obile":3808,"Ġnames":3809,"Ġrempl":3810,"Ġpense":3811,"ĠSy":3812,"ĠprÃ©v":3813,"itter":3814,"tection":3815,"substring":3816,"Ġequ":3817,"NB":3818,"chÃ©":3819,"ĠEur":3820,"Ġaccord":3821,"Ġheight":3822,"Dict":3823,"Ġtensor":3824,"Ġpratique":3825,"Ġvue":3826,"ĠsÃ»":3827,"anges":3828,"django":3829,"Ġjeunes":3830,"Ġcommerci":3831,"Input":3832,"'''":3833,"Ġvu":3834,"Ġpres":3835,"ĠÃªtes":3836,"ĠPlus":3837,"views":3838,"ability":3839,"Ġfeature":3840,"CE":3841,"Ġanci":3842,"Ġoffre":3843,"fs":3844,"ĠĠĠĠĠĠĠĠĠĠ":3845,"processing":3846,"Ġnouvelles":3847,"Ġspecified":3848,"hed":3849,"Ġenter":3850,"ĠderniÃ¨re":3851,"iennent":3852,"Ġencode":3853,"very":3854,"Ġphone":3855,"duction":3856,"script":3857,"Ġfeu":3858,"pay":3859,"debug":3860,"ftware":3861,"Ã¢t":3862,"iner":3863,"Ġchamp":3864,"]+":3865,"Ġtraitement":3866,"oration":3867,"ined":3868,"temps":3869,"ws":3870,"Ġunder":3871,"Ġoption":3872,"Ġwidth":3873,"ĠSort":3874,"ayes":3875,"match":3876,"Ġgarant":3877,"popul":3878,"ĠID":3879,"Sub":3880,"uve":3881,"options":3882,"Ġvoyage":3883,"oins":3884,"urance":3885,"press":3886,"ĠBon":3887,"even":3888,"ped":3889,"ĠCela":3890,"mn":3891,"rement":3892,"Int":3893,"ĠprÃ©par":3894,"Ġroute":3895,"Ġvou":3896,".,":3897,"35":3898,"fibonacci":3899,"Ã¨tres":3900,"location":3901,"Ã«l":3902,"Ġcaract":3903,"Ġfich":3904,"ĠdÃ©clar":3905,"ĠÃīt":3906,"ĠtÃªte":3907,"Ġdel":3908,"Ã©rique":3909,"tex":3910,"idf":3911,"Ġwhen":3912,"Ġquat":3913,"aler":3914,"Ġquoi":3915,"ients":3916,"Ġrestaur":3917,"ĠrÃ¨g":3918,"Ġanim":3919,"Ġavril":3920,"issant":3921,"Ġsave":3922,"height":3923,"Ġeux":3924,"try":3925,"Frame":3926,"ding":3927,"QU":3928,"Ġphotos":3929,"Ġload":3930,"Ġcomplex":3931,"Ġnetwork":3932,"issing":3933,"Ã©tique":3934,"Ġparten":3935,"Ġlorsque":3936,"lin":3937,"Ġvendre":3938,"\"])":3939,"UM":3940,"Ġseries":3941,"TO":3942,"ral":3943,"Ġstudent":3944,"Ġdirectory":3945,"Ġquelque":3946,"Ġbot":3947,"Ġavis":3948,"ĠfÃ©vrier":3949,"come":3950,"usement":3951,"Ġhighest":3952,"Ġmaintenant":3953,"Ġenumer":3954,"Ġstrat":3955,"Ġinstance":3956,"effic":3957,"quel":3958,"ĠDi":3959,"Ã©gr":3960,"utÃ´t":3961,"plicate":3962,"Ġtitre":3963,"oles":3964,"]])":3965,"teur":3966,"Ġmarque":3967,"Ġrapp":3968,"Or":3969,"Ġtokens":3970,"apple":3971,"(-":3972,"EY":3973,"Ġblock":3974,"ROM":3975,"Ġlimit":3976,"Ã§u":3977,"Ġfrais":3978,"---":3979,"Ġsuch":3980,"Ġboth":3981,"Ġtensorflow":3982,"Mat":3983,"Ġsus":3984,"'].":3985,"Ġsupport":3986,"dess":3987,"Ġten":3988,"ases":3989,"Ġconsomm":3990,"ĠImport":3991,"Ġsav":3992,"Ġmari":3993,"imest":3994,"duplicates":3995,"Ġmeilleur":3996,"LI":3997,"Ġcook":3998,"Ġsucc":3999,"Ġbelle":4000,"Ġcart":4001,"ĠPas":4002,"ĠComme":4003,"color":4004,"Ġcolumns":4005,"Ġenumerate":4006,"Ġloi":4007,"utilisation":4008,"La":4009,"irt":4010,"ardin":4011,"URL":4012,"Time":4013,"Text":4014,"Ġnav":4015,"utation":4016,"ĠMan":4017,"Test":4018,"Ġevent":4019,"Ġperson":4020,"Ġlocation":4021,"Ġscraper":4022,"Ġidentify":4023,"Key":4024,"Ġwithout":4025,"fields":4026,"tent":4027,"application":4028,"ĠQue":4029,"ĠmÃ©dic":4030,"Ġstatus":4031,"Ġcommenc":4032,"uerre":4033,"Ġmillions":4034,"ighbors":4035,"erence":4036,"average":4037,"Ġexample":4038,"Ġdivers":4039,"âĢĿ":4040,"nov":4041,"send":4042,"Pl":4043,"Ġcuis":4044,"Ġabout":4045,"ister":4046,"ĠVo":4047,"1234":4048,"Ġpot":4049,"Ġ80":4050,"correct":4051,"curr":4052,"once":4053,"uellement":4054,"olution":4055,"Ġ29":4056,"ball":4057,"nel":4058,"ĠProgram":4059,"ĠnÃ©cessaire":4060,"Ġvector":4061,"Ġneed":4062,"Ġentreprise":4063,"ĠjournÃ©e":4064,"}')":4065,"iti":4066,"ĠDÃ©c":4067,"ourse":4068,"Ġgl":4069,"Ġpourrait":4070,"Ġ2010":4071,"Ġdivisible":4072,"=[":4073,"={":4074,"job":4075,"erve":4076,"radius":4077,"Ġmembres":4078,"Ġmen":4079,"Ġ1000":4080,"Ġpropri":4081,"blem":4082,"Ġcit":4083,"Ġhash":4084,"event":4085,"atives":4086,"Ġdoivent":4087,"ĠPublic":4088,"abel":4089,"ĠMal":4090,"ĠUsing":4091,"sed":4092,"Ġnecessary":4093,"argument":4094,"Ġcapital":4095,"Ġaccomp":4096,"Ã©quipe":4097,"Ġsport":4098,"He":4099,"device":4100,"Ġsein":4101,"dictionary":4102,"datetime":4103,"Ġcontra":4104,"Ġrapidement":4105,"aud":4106,"OP":4107,"37":4108,"45":4109,"ban":4110,"Ġalphabet":4111,"ĠRead":4112,"Ġsolve":4113,"Ġprovided":4114,"duc":4115,"Ġauthor":4116,"Ġviol":4117,"Ġcandid":4118,"Ġautour":4119,"Ġlinks":4120,"!\"":4121,"RAN":4122,"Ġpourra":4123,"ĠEdit":4124,"ongo":4125,"erre":4126,"ĠMy":4127,"qrt":4128,"gs":4129,"ina":4130,"Ġhabit":4131,"prim":4132,"Ġplais":4133,"kwargs":4134,"ĠPart":4135,"User":4136,"Ġinitial":4137,"Ġvente":4138,"queue":4139,"other":4140,"Ġaugment":4141,"Set":4142,"Ġsat":4143,"ĠCor":4144,"palindrome":4145,"Ġsuccess":4146,"ĠspÃ©c":4147,"ĠCountVectorizer":4148,"SER":4149,"Ġlocal":4150,"block":4151,"ĠNotre":4152,"ĠWeb":4153,".\"\"\"":4154,"sal":4155,"quares":4156,"ĠplutÃ´t":4157,"Ġmoyen":4158,"histoire":4159,"HT":4160,"Ġcarte":4161,"ATE":4162,"Ġcalled":4163,"Ġchoses":4164,"poch":4165,"Ġpermutations":4166,"ĠÃ©taient":4167,"ĠdÃ©couvrir":4168,"-%":4169,"Ã¢te":4170,"rows":4171,"ca":4172,"dle":4173,"osest":4174,"aisse":4175,"illage":4176,"Ġ2011":4177,"pute":4178,":\")":4179,"side":4180,"uÃ©":4181,"ouss":4182,"Ġcourse":4183,"Ġorganis":4184,"Ġoblig":4185,"ags":4186,"Ġproduction":4187,"Ġheure":4188,"Ġcertaines":4189,"Ġmultiple":4190,"02":4191,"Ġcause":4192,"ordin":4193,"ĠpassÃ©":4194,"ĠĠĠĠĠĠĠĠĠĠĠĠĠĠ":4195,"Ġensuite":4196,"atoire":4197,"Ġpourquoi":4198,"aliste":4199,"Ġadapt":4200,"Åĵur":4201,"Length":4202,"Ġmalad":4203,"ĠpÃ©riode":4204,"Ġanagrams":4205,"65":4206,"actions":4207,"ks":4208,"oie":4209,"pendant":4210,"Ġdigit":4211,"ĠSon":4212,"verture":4213,"Ġliste":4214,"ĠDieu":4215,"copy":4216,"ĠâĢľ":4217,"Status":4218,"Ġutiliser":4219,"pyplot":4220,"lÃ©":4221,"ĠÃ©tudi":4222,"alysis":4223,"Acc":4224,"nerg":4225,"ĠsÃ©lection":4226,"ĠdiffÃ©rentes":4227,"#!":4228,"ool":4229,"level":4230,"Ġfilename":4231,"ĠÃ©quip":4232,"population":4233,"hum":4234,"tat":4235,"ĉĊ":4236,"Ġaider":4237,"Ġbody":4238,"ĠNum":4239,"span":4240,"Ġprat":4241,"Ġvict":4242,"vor":4243,"Ġnombreuses":4244,"irm":4245,"Ġpropre":4246,"Ġautor":4247,"89":4248,"yant":4249,"reen":4250,"Ġcham":4251,"Ġplate":4252,"Ġseule":4253,"Ġjeune":4254,"ĠÅĵ":4255,"Ġbal":4256,"ĠSal":4257,"ĠAv":4258,".')":4259,"build":4260,"Ġtend":4261,"heure":4262,"ĠMerci":4263,"Ġcertain":4264,"Ġgrands":4265,"Result":4266,"Ob":4267,"Ġ2013":4268,"ĠnÃ©g":4269,"Ġclasses":4270,"Ġmondi":4271,"Ġsimil":4272,"plications":4273,"cast":4274,"Ġcopy":4275,"ird":4276,"ĠgÃ©nÃ©ral":4277,"Ġ=>":4278,"elif":4279,"ĠAss":4280,"ĠcrÃ©er":4281,"Array":4282,"API":4283,"erce":4284,"umps":4285,"optim":4286,"Ad":4287,"ĠPe":4288,"Ġtemperature":4289,"Ġaucun":4290,"omin":4291,"Ġban":4292,"essages":4293,"ĠBar":4294,"ĠMa":4295,"tokens":4296,"Ġencrypt":4297,"commit":4298,"Ġthere":4299,"Ġpetits":4300,"option":4301,"eting":4302,"ensions":4303,"Ġprogramming":4304,"Ġsingle":4305,"largest":4306,"Ã©gor":4307,"ely":4308,"project":4309,"Ġ90":4310,"Ġdocuments":4311,"Count":4312,"aide":4313,"over":4314,"Ġlum":4315,"Ġtypes":4316,"ĠPO":4317,"ĠMin":4318,"Ġinvest":4319,"heap":4320,"ulation":4321,"Ġdesign":4322,"rire":4323,"Ġvisited":4324,"Ġgouvernement":4325,"ulaire":4326,"ĠFin":4327,"LECT":4328,"tn":4329,"tract":4330,"ĠRes":4331,"Ġnegative":4332,"Ġplein":4333,"Ġconnection":4334,"Ġpap":4335,"aÃ®t":4336,"Ġfig":4337,"Ġchac":4338,"ĠrÃ©fÃ©r":4339,"ĠSequential":4340,"Ġnouveaux":4341,"balance":4342,"ream":4343,"ĠLib":4344,"70":4345,"TE":4346,"ifest":4347,"ĠBr":4348,"Ġobjects":4349,"Ġhandle":4350,"ĠmodÃ¨le":4351,"call":4352,"Ġdjango":4353,"href":4354,"car":4355,"Ġtar":4356,"ĠSp":4357,"ĠauprÃ¨s":4358,"ILE":4359,"();":4360,"Ġusername":4361,"Ġatte":4362,"ĠintÃ©ress":4363,"Ġfib":4364,"Ġhomme":4365,"header":4366,"Ð¾":4367,"ĠCounter":4368,"ada":4369,"onnes":4370,"Ġscrape":4371,"seq":4372,"secret":4373,"Ġsemble":4374,"Ġvoiture":4375,"hook":4376,"inomial":4377,"gex":4378,"Ġprest":4379,"ĠdÃ©t":4380,"Ġallow":4381,"conne":4382,"Ġdouble":4383,"Ġmerged":4384,"ipeline":4385,"dent":4386,"Ġsample":4387,"expl":4388,"Ġrep":4389,"abs":4390,"agner":4391,"Ġimages":4392,"ĠmÃ©di":4393,"fore":4394,"ls":4395,"Ġthread":4396,"Ġfinal":4397,"ĠprÃ©sente":4398,"ociation":4399,"sql":4400,"ĠBien":4401,"quences":4402,"Ġoccurr":4403,"55":4404,"cm":4405,"Ġgam":4406,"twe":4407,"Ġamb":4408,"Ġcsv":4409,"ĠLors":4410,"aps":4411,"Ġaliment":4412,"pus":4413,"ĠRandom":4414,"Ġsites":4415,"ĠDu":4416,"ĠDep":4417,"ĠaoÃ»t":4418,"Ġworld":4419,"Ġauth":4420,"ropy":4421,"imat":4422,"Ġanaly":4423,"termine":4424,"auche":4425,"ood":4426,"ĠMat":4427,"loads":4428,"Ġcondition":4429,"Node":4430,"bas":4431,"high":4432,"istiques":4433,"Ġ'/":4434,"make":4435,"ĠrÃ©seau":4436,"Ġside":4437,"Ġvia":4438,"Ġprise":4439,"Ġfavor":4440,"duce":4441,"Ġfinanci":4442,"Ġdoes":4443,"ĠAlors":4444,"inc":4445,"Ġfrequent":4446,"itez":4447,"argv":4448,"ĠactivitÃ©s":4449,"Ġpages":4450,"Ġloin":4451,"Ġprices":4452,"grade":4453,"Ġchoisir":4454,"Ġterrit":4455,"session":4456,"sample":4457,"pair":4458,"Ġsac":4459,"ĠMult":4460,"propert":4461,"binary":4462,"alog":4463,"Ġrendre":4464,"Ġselect":4465,"Ġperformance":4466,"iness":4467,"iquÃ©":4468,"ĠmÃ©th":4469,"Ġprofessionnels":4470,"Ġrisque":4471,"Sort":4472,"sur":4473,"ically":4474,"ries":4475,"duit":4476,"Char":4477,"br":4478,"iled":4479,"ailleurs":4480,"transaction":4481,"TION":4482,"ĠprocÃ©d":4483,"ablement":4484,"Ġ{}\".":4485,"Ġquotid":4486,"inv":4487,"ĠConse":4488,"Ġdirection":4489,"rieve":4490,"unic":4491,"Ġrend":4492,"Ġconsult":4493,"Ġder":4494,"ular":4495,"Ãªtes":4496,"ross":4497,"Ġgenre":4498,"Ġsaison":4499,"prit":4500,"Ġ35":4501,"Ġrais":4502,"predictions":4503,"Ðµ":4504,"Ġstyle":4505,"Ġexcl":4506,"ĠJava":4507,"Ġtechnique":4508,"Ġprend":4509,"Ġ31":4510,"\"],":4511,"Ġmetrics":4512,"ograph":4513,"Ġvient":4514,"Ġvectorizer":4515,"idence":4516,"([[":4517,"det":4518,"nt":4519,"quant":4520,"Ġ2022":4521,"ĠUser":4522,"Ġprojets":4523,"ĠrÃ©sultats":4524,"irer":4525,"Ġimpl":4526,"DB":4527,"entiment":4528,"aw":4529,"Ġsome":4530,"adata":4531,"partement":4532,"Ġshow":4533,"xy":4534,"aison":4535,"Ġemploy":4536,"Ġsalle":4537,"ĠstratÃ©g":4538,"plement":4539,"src":4540,"two":4541,"ward":4542,"Ġcustom":4543,"ĠAm":4544,"Ġexiste":4545,"stop":4546,"ĠÃ©m":4547,"ĠdÃ©part":4548,"Ġcollection":4549,"Ġgratu":4550,"pin":4551,"Ġwrit":4552,"Ġisinstance":4553,"areil":4554,"Ã©rieure":4555,"Ġpad":4556,"exist":4557,"ĠÃ©crit":4558,"Ġglobal":4559,"ĠAb":4560,"Ġtard":4561,"porter":4562,"ĠReturns":4563,"ĠvidÃ©o":4564,"var":4565,"Ġdevice":4566,"roid":4567,"raÃ®":4568,"issent":4569,"ready":4570,"Ġtermin":4571,"Ġheaders":4572,"#!/":4573,"You":4574,"icon":4575,"igine":4576,"ynam":4577,"nÃ©":4578,"information":4579,"Ġmor":4580,"Ġmust":4581,"und":4582,"ĠAf":4583,"Ġfacile":4584,"mÃ©di":4585,"Ġproblem":4586,"ĠÃ©tant":4587,"Ġdomaine":4588,"CS":4589,"ĠSup":4590,"Ġhommes":4591,"Ġsymb":4592,"Ġspect":4593,"ĠcrÃ©ation":4594,"........":4595,"Ġveut":4596,"Ġchr":4597,"Ġbesoins":4598,"Ġlike":4599,"iloc":4600,"ails":4601,"ĠpiÃ¨ces":4602,"Ġtimes":4603,"Ġassert":4604,"Ġlowercase":4605,"06":4606,"down":4607,"vious":4608,"\">":4609,"Ã¨les":4610,"Ġparler":4611,"Ġdetermine":4612,"Ġvaleur":4613,"ĠmÃ©dec":4614,"IP":4615,"cf":4616,"Ġemb":4617,"FA":4618,"Ġvac":4619,"Ġjeux":4620,"pha":4621,"Ġsolutions":4622,"types":4623,"Ġcmd":4624,"button":4625,"ily":4626,"ĠrÃ©ponse":4627,"template":4628,"Ġplaisir":4629,"*(":4630,"auss":4631,"sg":4632,"Ġsecteur":4633,"ĠGoogle":4634,"ene":4635,"Ġste":4636,"ĠRem":4637,"Ġir":4638,"Ġcin":4639,"cond":4640,"Ġcoll":4641,"enseigne":4642,"08":4643,"imag":4644,"igue":4645,"ĠAs":4646,"venu":4647,"DO":4648,"sign":4649,"Ġregression":4650,"Ġhere":4651,"ibil":4652,"ĠrÃ©v":4653,"Ġterre":4654,"aul":4655,"quelle":4656,"Ġinfo":4657,"acer":4658,"Ġnumer":4659,"Ġ500":4660,"mage":4661,"pu":4662,"ĠexpÃ©rience":4663,"tte":4664,"icro":4665,"Ġwin":4666,"ither":4667,"ĠmatiÃ¨re":4668,"Ġlayer":4669,"Th":4670,"Ġtaux":4671,"Ġnuit":4672,"ĠprÃªt":4673,"ennes":4674,"als":4675,"Ġquatre":4676,"roit":4677,"OL":4678,"onde":4679,"23":4680,"gg":4681,"mit":4682,"charger":4683,"ync":4684,"Ġlongue":4685,"CC":4686,"Ġparfois":4687,"Ã©hic":4688,"PAT":4689,"Ġrecurs":4690,"Ġcipher":4691,"78":4692,"sim":4693,"Ġcam":4694,"Ġprotection":4695,"service":4696,"files":4697,"occasion":4698,"wait":4699,"Ġradius":4700,"1000":4701,"75":4702,"Ãªmes":4703,"Ġ45":4704,"msg":4705,".'":4706,"IG":4707,"UP":4708,"mm":4709,"ams":4710,"ĠChar":4711,"headers":4712,"Ġlun":4713,"enses":4714,"Ġdroits":4715,"!')":4716,"dic":4717,"rs":4718,"vies":4719,"}\")":4720,"change":4721,"Ġfinds":4722,"Ġannonc":4723,"SELECT":4724,"HER":4725,"NU":4726,"Path":4727,"Ã©ments":4728,"Ġfetch":4729,"Ġqual":4730,"Ġguerre":4731,"Ġ[],":4732,"ĠFROM":4733,"ĠEst":4734,"Ġaller":4735,"Ġoriginal":4736,"ĠUp":4737,"Ġtransaction":4738,"ĠData":4739,"Ġplay":4740,"Ġlower":4741,"*-":4742,"fetch":4743,"hy":4744,"ĠTe":4745,"ĠMultinomial":4746,"esses":4747,"Ġsimplement":4748,"Ġtechniques":4749,"hab":4750,"eta":4751,"Ġmouve":4752,"alf":4753,"Ġtransform":4754,"Ġsuppl":4755,"Ġindu":4756,"Ġwork":4757,"erm":4758,"Ġlaquelle":4759,"Ġincre":4760,"Ġ\".":4761,"stock":4762,"ĠChrist":4763,"iversitÃ©":4764,"Mar":4765,"iments":4766,"usiness":4767,"ĠfrÃ©":4768,"ift":4769,"ĠPol":4770,"ĠDis":4771,"Unis":4772,"hÃ©s":4773,"Ġtourn":4774,"Ġedit":4775,"Ġevery":4776,"Ġshort":4777,"bose":4778,"Exception":4779,"Ġfast":4780,"ints":4781,"ĠET":4782,"\").":4783,"ĠString":4784,"rant":4785,"Ġtaille":4786,"elper":4787,"ĠPort":4788,"Model":4789,"Not":4790,"Ġpop":4791,"entrÃ©e":4792,"Ġduplicates":4793,"Ġraw":4794,"Ġayant":4795,"Ġlinked":4796,"Ġmatin":4797,"ĠGeneral":4798,"dev":4799,"Les":4800,"ony":4801,"Ġ->":4802,"Ġmonth":4803,"utils":4804,"requencies":4805,"Ġmultiply":4806,"28":4807,"Item":4808,"KEY":4809,"ĠHe":4810,"ĠInst":4811,"Ġpersonnel":4812,"Ġprocessus":4813,"Ġprofessionnel":4814,"poser":4815,"No":4816,"Ġfour":4817,"ĠAct":4818,"Ġrecord":4819,"indows":4820,"Ġaucune":4821,"Ġajout":4822,"ĠcÅĵur":4823,"isf":4824,"istique":4825,"Ġstd":4826,"ĠSc":4827,"Ġascending":4828,"Ġfiltered":4829,"gin":4830,"ping":4831,"Ġensemble":4832,"sqrt":4833,"Ġpie":4834,"Ġcop":4835,"Ġlamb":4836,"except":4837,"Ġpil":4838,"Ġ2009":4839,"Ġaurait":4840,"itch":4841,"Ġcontrib":4842,"usters":4843,"ORT":4844,"uffle":4845,"Ġaxis":4846,"ament":4847,"Ġconfort":4848,"44":4849,"ba":4850,"Ġq":4851,"ueill":4852,"oyer":4853,"glish":4854,"Ġneural":4855,"rown":4856,"Dir":4857,"isode":4858,"Ġ-*-":4859,"erts":4860,"END":4861,"ĠAnd":4862,"tings":4863,"ĠSim":4864,"ailable":4865,"Ġspecial":4866,"36":4867,"Opt":4868,"itable":4869,"ĠClass":4870,".*":4871,"ĠAI":4872,"classifier":4873,"Ġabs":4874,"ĠLogistic":4875,"26":4876,"AY":4877,"Message":4878,"drop":4879,"Ġprimes":4880,"ĠrÃ©f":4881,"Ġcommande":4882,"Ġclasse":4883,"ĠamÃ©ric":4884,"PS":4885,"vo":4886,"ulte":4887,"ĠmaÃ®":4888,"rag":4889,"andler":4890,"Ġscores":4891,"venue":4892,"Ġcompagn":4893,"ĠrÃ©serv":4894,"HE":4895,"aie":4896,"Ġphys":4897,"Ġmagn":4898,"customer":4899,"cmd":4900,"const":4901,"ĠUS":4902,"ĠMultinomialNB":4903,")/":4904,"FF":4905,"city":4906,"Ġtent":4907,"Ġred":4908,"ĠĠĠĠĠĠĠĠĠĠĠĠĠĠĠĠĠĠĠĠĠĠĠĠĊ":4909,"Ġefficace":4910,"ero":4911,"Ġcursor":4912,"ivitÃ©":4913,"Index":4914,"gle":4915,"has":4916,"Ġvide":4917,"Ġproject":4918,"ĠÃ©nerg":4919,"ĠrÃ©un":4920,"conf":4921,"Ġtradition":4922,"ĠdurÃ©e":4923,"Ġlambda":4924,"Script":4925,"frequent":4926,"itation":4927,"ĠrÃ´le":4928,"users":4929,"Ġterme":4930,"Ġgreat":4931,"({'":4932,"Ġtriangle":4933,"Ġtax":4934,"Ġcy":4935,"otes":4936,"fois":4937,"Ġnodes":4938,"ĠÃ©lev":4939,"Ġcalculates":4940,"kn":4941,"Ġalready":4942,"Ġdetails":4943,"ĠvÃ©hic":4944,"':'":4945,"gu":4946,"uck":4947,"ĠIsl":4948,"Ġblanc":4949,"OS":4950,"square":4951,"Ð°":4952,"issions":4953,"ĠdeuxiÃ¨me":4954,"true":4955,"Ġ\"/":4956,"abc":4957,"Ġplot":4958,"ĠbÃ©nÃ©fic":4959,"88":4960,"CD":4961,"punctuation":4962,"Ġ\"\\":4963,"Ġprediction":4964,"Ġforce":4965,"ĠdÃ©fin":4966,"extraction":4967,"By":4968,"IST":4969,"Ġpur":4970,"oure":4971,"Ġvite":4972,"ĠQuel":4973,"ĠrÃ©gul":4974,"Ġcomprendre":4975,"Ġaura":4976,"ĠsÃ»r":4977,"Des":4978,"Ġparc":4979,"ĠÃ©tabl":4980,"Ġinputs":4981,"ĠExtract":4982,"Ġnoir":4983,"ĠÃ¢":4984,"depth":4985,"pochs":4986,"land":4987,"odd":4988,"ATION":4989,"nements":4990,"Ġafter":4991,"Ġcuisine":4992,"Ġeither":4993,"Ġautant":4994,"Ġvois":4995,"perm":4996,"ĠdonnÃ©":4997,"Ġparticulier":4998,"ĠÃ©conomique":4999,"tx":5000,"ĠSm":5001,"ĠParse":5002,"placement":5003,"Ġdirectement":5004,"```":5005,"mary":5006,"Ġdoss":5007,"Ġfield":5008,"Ġoutputs":5009,"espace":5010,"Ġquart":5011,"Ġsorting":5012,"Ð¸":5013,"orial":5014,"Ġvont":5015,"adam":5016,"Ġmusique":5017,"Ġcorresponding":5018,"ĠGNU":5019,"airtel":5020,"Ġzone":5021,"dest":5022,"Ġbure":5023,"Ã¨de":5024,"ĠâĨ":5025,"draw":5026,"func":5027,"Ġmass":5028,"ĠrÃ©uss":5029,"Ġperd":5030,"Ġ70":5031,"Ġparams":5032,"CA":5033,"bles":5034,"Ġalso":5035,"Ġdiction":5036,"ĠPubl":5037,"prices":5038,"ĠSQL":5039,"ĠEN":5040,"ĠJu":5041,"tools":5042,"sumer":5043,"Ġgrandes":5044,"positions":5045,"Ġsouhait":5046,"nelle":5047,"Ġlire":5048,"Ġtoi":5049,"Ġ\"+":5050,"ĠAS":5051,"Ġhor":5052,"Code":5053,"rase":5054,"xim":5055,"Ġgrade":5056,"pi":5057,"pris":5058,"apon":5059,"Ġclassification":5060,"Ġmanifest":5061,"Forest":5062,"Ġroman":5063,"Ġchatbot":5064,"driver":5065,"pres":5066,"acity":5067,"Ġattributes":5068,"Ġsend":5069,"Ġlogging":5070,"salary":5071,"ker":5072,"ove":5073,"Ġlut":5074,"ifie":5075,"Ġlev":5076,"abord":5077,"ĠrÃ©p":5078,"\"),":5079,"ĠidÃ©":5080,"Ġcherche":5081,"loss":5082,"Ġair":5083,"Ġnor":5084,"ĠgÃ©":5085,"ĠsiÃ¨cle":5086,"\"):":5087,"Ġerr":5088,"environ":5089,"Ġlien":5090,"origine":5091,"Ġfille":5092,"ĠLire":5093,"Ġproducts":5094,"]):":5095,"pir":5096,"Ġdays":5097,"Ġexception":5098,"\":\"":5099,"ving":5100,"Ġrecomm":5101,"ĠĠĠĠĠĠĠĠĠĠĠĠĠĠĠĠĠĠ":5102,"Ġemails":5103,"ĠagrÃ©":5104,"aÃ¯":5105,"Ġai":5106,"Ã©mo":5107,"inder":5108,"illeurs":5109,"29":5110,"ĠdÃ©g":5111,"ĠOb":5112,"Ġchars":5113,"Ġvrai":5114,"ĠValue":5115,"Ġministre":5116,"rl":5117,"itaires":5118,"arde":5119,"ĠTous":5120,"Ġencrypted":5121,"Ġmajor":5122,"usse":5123,"issez":5124,"ĠSo":5125,"endent":5126,"Ġouvert":5127,"Ġdifficile":5128,"enez":5129,"Ġinitialize":5130,"Ġparameter":5131,"Ġvacances":5132,"Ġzip":5133,"PE":5134,"incl":5135,"Ġbroy":5136,"ĠSentiment":5137,"ĠInput":5138,"ĠamÃ©lior":5139,"Ġframe":5140,"ilement":5141,"Ġ):":5142,"ades":5143,"Ġmauv":5144,"Ġcollab":5145,"Content":5146,"Fibonacci":5147,"enn":5148,"Ġvar":5149,"ĠCON":5150,"Ġgcd":5151,"Ġclf":5152,"Ġweights":5153,"ĠAccueil":5154,")[":5155,"Equal":5156,"ris":5157,"enti":5158,"aper":5159,"ĠGrand":5160,"issements":5161,"Ġhaute":5162,"Ph":5163,"cg":5164,"pes":5165,"isez":5166,"Ġsym":5167,"Ġmeilleure":5168,"Ġsatisf":5169,"Ġclean":5170,"Ġbubble":5171,"Ġarch":5172,"Handler":5173,"dl":5174,"imin":5175,"Ġsalary":5176,"ĠDepuis":5177,"inct":5178,"struction":5179,"space":5180,"Ġconcernant":5181,"rÃ©s":5182,"thÃ¨":5183,"Ġpropert":5184,"ĠÃ©col":5185,"aa":5186,"aign":5187,"ifiÃ©":5188,"ibl":5189,"Ġweek":5190,"ĠproblÃ¨mes":5191,"Ġcookies":5192,"/{":5193,"VER":5194,"cel":5195,"Ġsepar":5196,"Ġsemain":5197,"module":5198,"ĠSujet":5199,"TER":5200,"cros":5201,"Ġsan":5202,"raison":5203,"Ġjardin":5204,"ĠĠĠĠĠĠĠĠĠĠĠĠĠĠĠĠĠ":5205,"Ġmilieu":5206,"ĠrÃ©pondre":5207,"Create":5208,"ME":5209,"Ġpsy":5210,"scale":5211,"Inst":5212,"Ġbooks":5213,"Ġ'--":5214,"ited":5215,"oise":5216,"ĠfranÃ§aise":5217,"Ġtkinter":5218,"MA":5219,"Ġapi":5220,"pected":5221,"ĠÃ©lÃ©ments":5222,"Search":5223,"Ġchangement":5224,"VC":5225,"rices":5226,"tu":5227,"ĠTO":5228,"ĠMich":5229,"Ġflag":5230,"Ġcompris":5231,"ĠprÃ©cÃ©d":5232,"03":5233,"ason":5234,"ĠnÃ©":5235,"Ġrout":5236,"chant":5237,"ducation":5238,"Ġgard":5239,"Ġsuivre":5240,"Ġgaz":5241,"Ġunivers":5242,"lists":5243,"Ġcouleur":5244,"ðŁ":5245,"Ġ::":5246,"obilier":5247,"Of":5248,"atural":5249,"avais":5250,"Ġclosest":5251,"12345":5252,"Base":5253,"vowels":5254,"Ġ'-":5255,"success":5256,"ĠLogisticRegression":5257,"SQL":5258,"Ġour":5259,"ished":5260,"Ġobj":5261,"Ġcommunication":5262,"Ġuppercase":5263,"imestamp":5264,"Eur":5265,"ĠCo":5266,"ocol":5267,"Ġmeilleurs":5268,"Ġchacun":5269,"vari":5270,"enf":5271,"Ġpush":5272,"ensity":5273,"Ġhistoire":5274,"zip":5275,"aller":5276,"Ġadminist":5277,"anagram":5278,"Ġoperation":5279,"Str":5280,"Ġast":5281,"Ġdesc":5282,"Ġexec":5283,"upart":5284,"alisÃ©":5285,"ĠConseil":5286,"Ġsemaines":5287,"NA":5288,"aime":5289,"Ġchoice":5290,"Ġscol":5291,"Ġdevrait":5292,"urt":5293,"Ġparents":5294,"Ġchef":5295,"ĠQuand":5296,"Ġconseils":5297,"Ġloss":5298,"Ġnth":5299,"Ġreport":5300,"ĠFace":5301,"Ġplupart":5302,"sentropy":5303,"ĠRandomForest":5304,"DP":5305,"TN":5306,"js":5307,"Ġtom":5308,"Ġvirt":5309,"Ġplast":5310,"ĠNew":5311,"Ġlit":5312,"Ġremo":5313,"emploi":5314,"09":5315,"Get":5316,"Qu":5317,"Ret":5318,"Ġdoute":5319,"onom":5320,"Ġrecommand":5321,"ĠbÃ¢t":5322,"loop":5323,"ĠdÃ©ch":5324,")),":5325,"Ġstruct":5326,"(['":5327,",\"":5328,"Comm":5329,"aprÃ¨s":5330,"go":5331,"Ġcoding":5332,"otion":5333,"igu":5334,"ribute":5335,"Ġvolont":5336,"Ġcombinations":5337,"Ġchambre":5338,"Ġvent":5339,"Ġvoul":5340,"ĠCons":5341,"ĠInter":5342,"Ã©mat":5343,"Ġdevez":5344,"ifiques":5345,"Ġevaluate":5346,"Ġchecks":5347,"Ġmm":5348,"delete":5349,"ĠtÃ©lÃ©phone":5350,"Ġbord":5351,"Ġurllib":5352,"Analyzer":5353,"pare":5354,"alie":5355,"Ġbin":5356,"ĠTw":5357,"ousse":5358,"Ġchiff":5359,"Ġdisponible":5360,"ĠIS":5361,"Ã©taire":5362,"Ġarriv":5363,"prefix":5364,"IF":5365,"Ġsin":5366,"Ġgauche":5367,"appr":5368,"ĠBou":5369,"Ġcomputer":5370,"children":5371,"Ġpairs":5372,"ĠmÃ©l":5373,"udget":5374,"Ġassur":5375,"ormais":5376,"ĠIsland":5377,"bit":5378,"Ġdon":5379,"Ã¨ves":5380,"exte":5381,"bytes":5382,"IO":5383,"ij":5384,"tÃ©":5385,"umes":5386,"Ġlequel":5387,"mis":5388,"wd":5389,"ĠEntre":5390,"Ġsentences":5391,"Ġmultiplication":5392,"'][":5393,"weight":5394,"reshape":5395,"uted":5396,"argent":5397,"Ġday":5398,"Ã©tÃ©s":5399,"Ġsortie":5400,"Ġpermis":5401,"PATH":5402,"Ġterrain":5403,"Ġdisponibles":5404,"Mod":5405,"Please":5406,"tom":5407,"Ġnational":5408,"ĠCO":5409,"Ġepochs":5410,"ologique":5411,"Ġeuros":5412,"ĠprotÃ©g":5413,"crossentropy":5414,"otel":5415,"ieur":5416,"Ġparmi":5417,"ĠcatÃ©gor":5418,"48":5419,"just":5420,"inte":5421,"ama":5422,"ĠST":5423,"Ġsouff":5424,"Ġsalari":5425,"Ġefficient":5426,"Ġindustri":5427,"nous":5428,"Ġcounter":5429,"ĠDense":5430,"ĠrÃ©aliser":5431,"wise":5432,"Ġdot":5433,"Ġvivre":5434,"Ġleast":5435,"Ġprim":5436,"ĠException":5437,"Ġfacilement":5438,"Ġhistor":5439,"Ġdistribution":5440,"homme":5441,"Ġnu":5442,"Ġvais":5443,"endra":5444,"Ġserr":5445,"ialog":5446,"It":5447,"sup":5448,"Ġold":5449,"Ġsection":5450,"Ġwithin":5451,"Ġsoient":5452,"Ġsoul":5453,"roll":5454,"Ġnavig":5455,"oad":5456,"ĠCert":5457,"Ġanother":5458,"Ġcontext":5459,"ifications":5460,"limit":5461,"Ġduplicate":5462,"']]":5463,"glais":5464,"uile":5465,"Ġuses":5466,"Ã´me":5467,"Ġconfiance":5468,"ae":5469,"Ġrue":5470,"Ġsex":5471,"Ġyeux":5472,"ĠĠĠĠĠĠĠĠĠĠĠĠĠĠĠĠĠĠĠĠĠĠĠĠĠĠĠĠĠĠĠ":5473,"Ġquotidien":5474,"Ġretrieve":5475,"expression":5476,"weather":5477,"charge":5478,"Ġremar":5479,"Ġsociaux":5480,"Ġfranc":5481,"Ġpou":5482,"Ġnationale":5483,"Ã¨tre":5484,"ĠprÃ©sence":5485,"ĠprÃ©fÃ©r":5486,"Ġabsol":5487,"ĠsuccÃ¨s":5488,"zy":5489,"dient":5490,"Ġkn":5491,"Ġinternet":5492,"multi":5493,"rating":5494,"Ġactions":5495,"Ġpied":5496,"Ġlines":5497,"primer":5498,"ĠAir":5499,"Ġrot":5500,"Ġordin":5501,"Ġpermettre":5502,"CK":5503,"ĠUpdate":5504,"Ġmessages":5505,"Ġanalysis":5506,"objects":5507,"Ġcomplet":5508,"Add":5509,"bes":5510,"ĠĠĠĠĠĠĠĠĠĠĊ":5511,"numer":5512,"Ġdroite":5513,"04":5514,"orde":5515,"intÃ©r":5516,"Ġpresse":5517,"Ġstores":5518,"Ġstandard":5519,"ĠAinsi":5520,"Ġconstitu":5521,"Ġobtenir":5522,"Ġsouhaitez":5523,"Line":5524,"Ġdynam":5525,"asing":5526,"ĠrÃª":5527,"oney":5528,"Ġprevious":5529,"Ġpolitiques":5530,"uels":5531,"Ġ[(":5532,"toy":5533,"assertEqual":5534,"Ġgamme":5535,")**":5536,"07":5537,"ki":5538,"king":5539,"ĠSelon":5540,"aill":5541,"Ġfront":5542,"ĠsupplÃ©ment":5543,"Ġanimal":5544,"ĠOR":5545,"Ġobjet":5546,"ĠmodÃ¨les":5547,"Act":5548,"Ġì":5549,"urez":5550,"igner":5551,"ario":5552,"ĠutilisÃ©":5553,"Ġconseil":5554,"ĠHTTP":5555,"reshold":5556,"ĠFit":5557,"Ġcontrat":5558,"udents":5559,"ĠderniÃ¨res":5560,"Ġappl":5561,"cer":5562,"Ġdownload":5563,"older":5564,"izing":5565,"ĠVoir":5566,"teger":5567,"ĠcontrÃ´le":5568,"Ġenfin":5569,"ĠStr":5570,"Ã©rature":5571,"illa":5572,"Ġsociale":5573,"Ġconstruction":5574,"Ass":5575,"vide":5576,"qui":5577,"ĠLA":5578,"ĠIs":5579,"Ġoui":5580,"ĠVotre":5581,"Ġtransport":5582,"Ġ2008":5583,"Ġtravailler":5584,"Intensity":5585,"eth":5586,"Ġbalance":5587,"Ġmesures":5588,"gÃ©":5589,"Ġsecret":5590,"exit":5591,"ĠparticuliÃ¨rement":5592,"Ġdestination":5593,"Ã©bec":5594,"ergie":5595,"jo":5596,"Ġmult":5597,"display":5598,":%":5599,"(\"\\":5600,"emb":5601,"ĠpossibilitÃ©":5602,"ÑĤ":5603,"Ġsession":5604,"ĠRun":5605,"27":5606,"hash":5607,"Ġnews":5608,"ronique":5609,"+=":5610,"\\.":5611,"isant":5612,"Ġmerci":5613,"Ġsocial":5614,"activitÃ©":5615,"ĠSentimentIntensity":5616,"isÃ©e":5617,"Ġenregist":5618,"Ġprior":5619,"ponses":5620,"ĠLE":5621,"Ġoperations":5622,"CRE":5623,"cache":5624,"dog":5625,"ech":5626,"Ġvenir":5627,"ĠText":5628,"Ġmanque":5629,"property":5630,"Ġtel":5631,"Ġcelles":5632,"Ġless":5633,"ĠRÃ©s":5634,"prediction":5635,"Ġrecords":5636,"ĠÃ©vÃ©":5637,"month":5638,"ĠSentimentIntensityAnalyzer":5639,"IE":5640,"Ġaltern":5641,"oolean":5642,"Ġlorsqu":5643,"ĠApp":5644,"Sh":5645,"Ġlook":5646,"ĠdÃ©tail":5647,"ĠWe":5648,"ancement":5649,"ĠÃ©tat":5650,"Ġappe":5651,"ĠPrÃ©s":5652,"Ġoperator":5653,"Ġfactors":5654,"Ġaide":5655,"ĠpÃ©n":5656,"sequences":5657,"idden":5658,"ĠÂ·":5659,"Ġdisposition":5660,"metrics":5661,"ACE":5662,"Ġexisting":5663,"Ġtasks":5664,"Ġfields":5665,"Ġiniti":5666,"primes":5667,"ĠnumÃ©ro":5668,"Ġchanger":5669,"Ġlaisser":5670,"dot":5671,"ĠcÃ©l":5672,"ĠAg":5673,"ĠdÃ©termin":5674,"ogn":5675,"Ġimag":5676,"Ġsuivi":5677,"Ġcategories":5678,"Ġtweet":5679,"bi":5680,"late":5681,"language":5682,"Ġtexte":5683,"store":5684,"ĠConne":5685,"Ġmay":5686,"enerator":5687,"Ġcommence":5688,"Ġpoids":5689,"Ġanswer":5690,"positive":5691,"XX":5692,"cision":5693,"celsius":5694,"ĠPrix":5695,"Ġdescending":5696,"('\\":5697,"Ġimpos":5698,"less":5699,"uid":5700,"Ġailleurs":5701,"ourg":5702,"ĠFranÃ§ais":5703,"ĠBel":5704,"days":5705,"Ġclo":5706,"Ġmissing":5707,"ĠCopy":5708,"Ġpeux":5709,"login":5710,"ANT":5711,"Ġpaie":5712,"ĠPostÃ©":5713,"Ġdictionaries":5714,"]*":5715,"Ġmut":5716,"Ġmenu":5717,"este":5718,"ĠMac":5719,"ĠdÃ©n":5720,"Ġsamedi":5721,"Ġenvironment":5722,"lic":5723,"Ġcrois":5724,"icile":5725,"chain":5726,"Ġjouer":5727,"Ġencoded":5728,"optimizer":5729,"Ġtal":5730,"Ġcontenu":5731,"ĠHaut":5732,"Object":5733,"Ġrand":5734,"ĠPerson":5735,"Ã©mie":5736,"500":5737,"UB":5738,"itution":5739,"acle":5740,"auv":5741,"Ġpremiers":5742,"`,":5743,"ng":5744,"uelles":5745,"Ġciv":5746,"Ġoubl":5747,"']:":5748,"Ġsuivant":5749,"center":5750,"Je":5751,"ev":5752,"Ġpin":5753,"this":5754,"ĠRec":5755,"pp":5756,"yl":5757,"leep":5758,"Ġextra":5759,"Ġcapit":5760,"Ġpleine":5761,"oux":5762,"ople":5763,"emp":5764,"database":5765,"Ġcrise":5766,"crit":5767,"uzz":5768,"ese":5769,"poque":5770,"ranch":5771,"ĠcoÃ»":5772,"Ġenfant":5773,"66":5774,"bon":5775,"gest":5776,"Ġmicro":5777,"ĠPet":5778,"ĠCV":5779,"endar":5780,"Ġderniers":5781,"Ġcommentaire":5782,"Ġdurant":5783,"ĠÃ©lectrique":5784,"isd":5785,"Ġmission":5786,"intÃ©rieur":5787,"Ġ'{":5788,"Ã©rence":5789,"Ġpartici":5790,"onner":5791,"merge":5792,"Ġjoueurs":5793,"Ġrouge":5794,"avantage":5795,"Ġpresque":5796,"cles":5797,"isible":5798,"appro":5799,"Ġavaient":5800,"Ġfaites":5801,"Ġmagas":5802,"Ġtweets":5803,"ominator":5804,"39":5805,"ĠpÃ¨re":5806,"iquez":5807,"paration":5808,"Ġcluster":5809,"Ġrelig":5810,"Ġfonctionn":5811,"'})":5812,"Ġcreates":5813,"banana":5814,"NE":5815,"ĠSte":5816,"ĠSoci":5817,"Ġexerc":5818,"apping":5819,"texte":5820,"Output":5821,"Ã©min":5822,"edding":5823,"Ġ400":5824,"Ġpeint":5825,"Ġlibert":5826,"Ġretrouver":5827,"lam":5828,"wik":5829,"Ġï¿½":5830,"ĠFr":5831,"Ġsurface":5832,"country":5833,"ĠpiÃ¨ce":5834,"Column":5835,"Ac":5836,"bers":5837,"Ġstation":5838,"ĠRed":5839,"']['":5840,"Ġclub":5841,"Inter":5842,"Ġpose":5843,"atifs":5844,"Ġjur":5845,"ĠDire":5846,"ĠMag":5847,"ĠRE":5848,"ignes":5849,"Ġappropri":5850,"Ġpower":5851,"Ġta":5852,"Ġrate":5853,"Ġtraverse":5854,"Ġpetites":5855,"ĠdÃ©sormais":5856,"Ġmots":5857,"Em":5858,"orient":5859,"Ġ\"-":5860,"ĠSol":5861,"ĠdÃ©mar":5862,"results":5863,"Ġindic":5864,"products":5865,"Response":5866,"xxxx":5867,"quis":5868,"Ġip":5869,"Ġkeyword":5870,"ĠKey":5871,"Ġindices":5872,"'},":5873,"Ġgenerates":5874,"ĠInternet":5875,"bum":5876,"ived":5877,"Ġiss":5878,"ĠNOT":5879,"Ġexecute":5880,"mettre":5881,"annel":5882,"Ġrelative":5883,"Ġvolume":5884,"/'":5885,"Ġur":5886,"Ġmap":5887,"ĠPAR":5888,"ĠCelsius":5889,"Ġcondu":5890,"ĠWindows":5891,"urls":5892,"Ġchemin":5893,"Ġmatches":5894,"ĠprÃ©f":5895,"Ġguess":5896,"ĠÃītats":5897,"novation":5898,"Ġpal":5899,"Ġthey":5900,"Ã¨rent":5901,"ĠMus":5902,"Ġcommune":5903,"occup":5904,"Ġcategory":5905,"Age":5906,"Ġauto":5907,"Ġsorts":5908,"icket":5909,"Ġheader":5910,"Ġverbose":5911,"DataFrame":5912,"Ð¾Ð":5913,"bn":5914,"ino":5915,"ĠYork":5916,"ĠsÃ©jour":5917,"books":5918,"Ġtags":5919,"Ġressources":5920,"Ġswap":5921,"vm":5922,"yon":5923,"Ġfoot":5924,"Info":5925,"Ġspam":5926,"Ġmoyens":5927,"><":5928,"Ġexcell":5929,"Server":5930,"menu":5931,"Ġsait":5932,"orer":5933,"Ġ\"%":5934,"ĠDjango":5935,"Ġdifficult":5936,"filtered":5937,"Author":5938,"Ġchauffage":5939,"ĠValueError":5940,"Ġparti":5941,"2020":5942,"Transaction":5943,"ĠMer":5944,"ĠrÃ©cup":5945,"(*":5946,"87":5947,"lant":5948,"ĠModel":5949,"iquement":5950,"achine":5951,"LOG":5952,"rale":5953,"ĠCall":5954,"Ġ'',":5955,"ĠSw":5956,"Ġhow":5957,"ĠRom":5958,"ĠOu":5959,"ycl":5960,"ĠðŁ":5961,"eler":5962,"Ġyield":5963,"ttes":5964,"Ġrelation":5965,"ĠCanada":5966,">\"":5967,"ĠtÃ©l":5968,"Ġcot":5969,"Ġconstruct":5970,"ĠNos":5971,"active":5972,"aliser":5973,"contents":5974,"alyse":5975,"dig":5976,"ĠLinked":5977,"ĠintÃ©gr":5978,"Ġaccount":5979,"256":5980,"posts":5981,"fahrenheit":5982,"ilÃł":5983,"lowercase":5984,"Ġlengths":5985,"ambres":5986,"Ġiterate":5987,"gn":5988,"rot":5989,"Ġ34":5990,"ĠĠĠĠĠĠĠĠĠĠĠĠĠĠĠĠĠĠĠĠĠĠĠĠ":5991,"maz":5992,"Ġcertaine":5993,"rapper":5994,"chat":5995,"Ġwould":5996,"2021":5997,"retien":5998,"ĠconsÃ©qu":5999,"Ġlibre":6000,"Ġcouleurs":6001,"ĠVoici":6002,"Ġrect":6003,"udo":6004,"Ġlongtemps":6005,"Ġmouvement":6006,"UI":6007,"way":6008,"extend":6009,"Ġmodify":6010,"MS":6011,"Ġquelle":6012,"ĠSud":6013,"Ġsud":6014,"contact":6015,"Ġacheter":6016,"negative":6017,"ABLE":6018,"Ġbatch":6019,"Ġvendredi":6020,"Pre":6021,"gender":6022,"ĠFahrenheit":6023,"Ġdispose":6024,"Ġdestin":6025,"Ġscient":6026,"Ġawait":6027,"Ġsquares":6028,"ulate":6029,"ĠSci":6030,"ands":6031,"Ġtrack":6032,"Ġorient":6033,"Ġweight":6034,"Incorrect":6035,"weights":6036,"Ġterms":6037,"ĠÃ©vol":6038,"Ġpygame":6039,"Ġmoyenne":6040,"GER":6041,"VE":6042,"eded":6043,"save":6044,"Ã©conom":6045,"Ġmi":6046,"decode":6047,"utral":6048,"ĠCa":6049,"ĠCet":6050,"oper":6051,"illon":6052,"Ġpermettant":6053,"ALU":6054,"Ġprofiter":6055,"Ġremain":6056,"ĠPC":6057,"Ġhors":6058,"system":6059,"Is":6060,"ym":6061,"itive":6062,"Ġdevenir":6063,"Ġlecture":6064,"ocation":6065,"Ġbeen":6066,"Ġmarche":6067,"Ġpuissance":6068,"ĠrÃ©sultat":6069,"Post":6070,"{'":6071,"Ġtuple":6072,"ĠcinÃ©":6073,"Ġfen":6074,"cho":6075,"ĠGra":6076,"Ġemployee":6077,"vectorizer":6078,":**":6079,"Function":6080,"sible":6081,"irs":6082,"Ġmoteur":6083,"ĠQuÃ©bec":6084,"Fl":6085,"dumps":6086,"Ġpeau":6087,"issors":6088,"Ġseconds":6089,"Ġtitles":6090,"ĠgÃ©nÃ©rale":6091,"Ġcinq":6092,"31":6093,"Scal":6094,"sig":6095,"Ġge":6096,"Ġ'%":6097,"ĠFranÃ§":6098,"tmp":6099,"Ġremb":6100,"Ġbrown":6101,"Ġproche":6102,"idÃ©e":6103,"ĠMain":6104,"ĠimmÃ©di":6105,"Label":6106,"win":6107,"atform":6108,"urent":6109,"ste":6110,"Ġwallet":6111,"Ġimg":6112,"Invalid":6113,"Service":6114,"PL":6115,"elem":6116,"Ġenvie":6117,"';":6118,"pip":6119,"Ġ\"<":6120,"veill":6121,"Ġneuf":6122,"Ġpermettent":6123,"agnost":6124,"ĠEurope":6125,"Ġbureau":6126,"pie":6127,"Ġvillage":6128,"icy":6129,"Ġprogress":6130,"riangle":6131,"ĠNet":6132,"]),":6133,"Ġoutils":6134,"movie":6135,"urgence":6136,"categorical":6137,"OUR":6138,"ogram":6139,"ville":6140,"Ġcraw":6141,"Ġviv":6142,"Ġparle":6143,"Ġchant":6144,"Ġmail":6145,"ĠWh":6146,"spam":6147,"Ġterritoire":6148,"Ġdog":6149,"Ġvin":6150,"ĠPS":6151,"ica":6152,"ersion":6153,"ieuse":6154,"ĠactivitÃ©":6155,"Home":6156,"Size":6157,"student":6158,"ĠCal":6159,"Ġelem":6160,"Ġproxim":6161,"Ġcommentaires":6162,"valuation":6163,"Ġrequire":6164,"Ġimplements":6165,"Ġdemander":6166,"Button":6167,"bayes":6168,"Ġslow":6169,"ĠdÃ©partement":6170,"ĠEvaluate":6171,"Ġdevra":6172,"Ġposts":6173,"Ġmiddle":6174,"zeros":6175,"Ġanti":6176,"ĠcaractÃ©r":6177,"Ġauthent":6178,"normal":6179,"Ġcab":6180,"itiÃ©":6181,"Ġment":6182,"imÃ©":6183,"ilib":6184,"ĠMet":6185,"ĠNa":6186,"Ġcade":6187,"Ġlevel":6188,"Ġprincipal":6189,"domain":6190,"49":6191,"NAM":6192,"RS":6193,"URE":6194,"asc":6195,"ctx":6196,"Ġbag":6197,"ĠFil":6198,"Ġ09":6199,"ĠEX":6200,"venus":6201,"Ġcomporte":6202,"Ġlundi":6203,"Ġfi":6204,"Ġnow":6205,"ĠPat":6206,"Ġlesqu":6207,"Ġpourtant":6208,"Ġchance":6209,"cons":6210,"preprocessing":6211,"Ġsubprocess":6212,"accÃ¨s":6213,"ĠproximitÃ©":6214,"Ġpois":6215,"aritÃ©":6216,"izes":6217,"Ã©cole":6218,"Ġnamed":6219,"ĠSee":6220,"ĠPubliÃ©":6221,"writ":6222,"atter":6223,"Ġglob":6224,"Ġsole":6225,"Ã©nergie":6226,"ĠÃ©viter":6227,"Ġcroissance":6228,"Ġdecimal":6229,"IRE":6230,"Â²":6231,"Ã©lo":6232,"Ġcity":6233,"Ġusage":6234,"objet":6235,"Ġdipl":6236,"Ġtesting":6237,"Ġendpoint":6238,"Ġrendez":6239,"Ġresponsable":6240,"Prime":6241,"Ġlivraison":6242,"Ġdossier":6243,"'\\":6244,"'{":6245,"bs":6246,"Ġsocket":6247,"rip":6248,"Ġxml":6249,"Ġoptimizer":6250,"++":6251,"public":6252,"real":6253,"quet":6254,"ĠscÃ¨ne":6255,"TS":6256,"Ġrating":6257,"ĠCat":6258,"iew":6259,"ĠRen":6260,"izz":6261,"columns":6262,"Ġaccording":6263,"Ġmaladie":6264,"bound":6265,"dates":6266,"Ġsl":6267,"ourt":6268,"Ġemp":6269,"handle":6270,"Return":6271,"ll":6272,"pens":6273,"Ġpi":6274,"itue":6275,"Ġnour":6276,"ump":6277,"estival":6278,"Ġenvironnement":6279,"ĠRÃ©g":6280,"strong":6281,"ponent":6282,"Ġdisc":6283,"ĠCompute":6284,"Ġtuples":6285,"ABC":6286,"Ġcirc":6287,"expÃ©rience":6288,"ĠFacebook":6289,"quÃªte":6290,"hex":6291,"Ġrepe":6292,"ĠTV":6293,"Ġgender":6294,"ĠBen":6295,"ĠChine":6296,"Ġappend":6297,"Ġvoix":6298,"Europe":6299,"Ġdriver":6300,"Ġ'*":6301,"ĠAtt":6302,"formations":6303,"Ã§ons":6304,"Ġamis":6305,"Ġbutton":6306,"localhost":6307,"ĠBonjour":6308,"Ġsix":6309,"ĠtÃ©mo":6310,"anne":6311,"Ġfunc":6312,"###":6313,"ĠrÃ©alitÃ©":6314,"ĠLoop":6315,"Ġcreating":6316,"Â»,":6317,"Ġfichier":6318,"Ġoccurrences":6319,"calculate":6320,"rest":6321,"onie":6322,"ĠÃ©cl":6323,"ĠdÃ©pl":6324,"bove":6325,"Ġflatten":6326,"ropout":6327,"ĠAujourd":6328,"Ġresponses":6329,"Parser":6330,"polarity":6331,"85":6332,"ĠREST":6333,"ublique":6334,"Ġbox":6335,"Ġlogiciel":6336,"ĠÃ©lÃ¨ves":6337,"SV":6338,"Ġmsg":6339,"Ġreference":6340,"asser":6341,"ĠchaÃ®":6342,"Ġfaud":6343,"Ġexc":6344,"Ġexact":6345,"Ãªche":6346,"reference":6347,"ipedia":6348,"Ġvalidate":6349,"solution":6350,"ĠnÃ©cessaires":6351,"ĠPrem":6352,"Ġconsommation":6353,"My":6354,"RA":6355,"Sc":6356,"Ġlitt":6357,"uler":6358,"ĠcoÃ»t":6359,"Ġoptimized":6360,"Ġrenfor":6361,"ĠrÃ©seaux":6362,"installation":6363,"ĠTwitter":6364,"ttp":6365,"Ġdevient":6366,"Ġconfiguration":6367,"Ġdimanche":6368,"Ġquicksort":6369,"gressor":6370,"ĠArticle":6371,"HERE":6372,"\"}":6373,"Ġinsc":6374,"oms":6375,"Ġrat":6376,"ĠPy":6377,"Ġbudget":6378,"Ġwant":6379,"ĠMA":6380,"Ġ!!!":6381,"Ã´ne":6382,"Ġdispar":6383,"Ġcapt":6384,"ĠcapacitÃ©":6385,"Ġsour":6386,"origin":6387,"ark":6388,"iteur":6389,"Ġ300":6390,"ĠOpen":6391,"ĠÃ©tr":6392,"CON":6393,"El":6394,"spr":6395,"orn":6396,"Ġfun":6397,"Ġjol":6398,"Ġmontre":6399,"Ġcircul":6400,"world":6401,"Ġpert":6402,"ombre":6403,"Ġtoit":6404,"achat":6405,"links":6406,"TY":6407,"ĠMax":6408,"empty":6409,"Ġfils":6410,"ĠdÃ©cision":6411,"Ã´tels":6412,"Ġpublique":6413,"ITY":6414,"Client":6415,"!'":6416,"??":6417,"World":6418,"uille":6419,"Ġdraw":6420,"Ġpression":6421,"ĠGe":6422,"Ġnettoy":6423,"Ġjournal":6424,"Ġcontraire":6425,"/%":6426,"Min":6427,"Ġsorte":6428,"Ã¨ge":6429,"ĠFree":6430,"Ã©ral":6431,"DAT":6432,"layer":6433,"xi":6434,"ordre":6435,"assurance":6436,"Ġpourrez":6437,"sentences":6438,"Ġaddition":6439,"Ġpuisque":6440,"Ġlangue":6441,"Ġbelow":6442,"Ġsoleil":6443,"rons":6444,"Ġsoftware":6445,"Ġmontant":6446,"sembl":6447,"rict":6448,"Ġ(-":6449,"Ġ>>":6450,"ĠEnfin":6451,"ĠCependant":6452,"Ġcontinu":6453,"soft":6454,"Ġcircle":6455,"ĠNoÃ«l":6456,"Etat":6457,"gique":6458,"Ġfore":6459,"race":6460,"unit":6461,"Ġanglais":6462,"ĠRÃ©p":6463,"ĠlumiÃ¨re":6464,".)":6465,"fidf":6466,"Ġlis":6467,"Ġcos":6468,"leu":6469,"ĠmÃ¨re":6470,"Ġparcours":6471,"Ġavailable":6472,"Ġpassage":6473,"Ġconsole":6474,"Ġdivide":6475,"Ġreads":6476,"Ġpratiques":6477,"Am":6478,"isan":6479,"Ġgagner":6480,"Ġphrase":6481,"Ġimportante":6482,"Ġentry":6483,"ĠconnaÃ®tre":6484,"Ġaccompagn":6485,"your":6486,"ura":6487,"ĠCentre":6488,"Ġapplications":6489,"accord":6490,"asseur":6491,"ĠvÃ©ritable":6492,"dessus":6493,"Ã¢teau":6494,"Ġabove":6495,"Ġtmp":6496,"ara":6497,"Ġbons":6498,"ĠCrÃ©":6499,"ĠVector":6500,"gric":6501,"ernel":6502,"sets":6503,"ologies":6504,"cole":6505,"esseur":6506,"naive":6507,"ĠRandomForestClassifier":6508,"Su":6509,"riques":6510,"Ġconcl":6511,"ĠJohn":6512,"Ġfilms":6513,"Ġvoulez":6514,"usage":6515,"Ġgenerated":6516,"oudre":6517,"On":6518,"mal":6519,"alle":6520,"Ġgrid":6521,"acques":6522,"Ġchaleur":6523,"Ġchambres":6524,"ĠPourquoi":6525,"Ãªts":6526,"Ġuniquement":6527,"CI":6528,"ĠTfidf":6529,"istant":6530,"idget":6531,"ĠdÃ©rou":6532,"auteur":6533,"Ġavg":6534,"issage":6535,"prob":6536,"ellig":6537,"axis":6538,"hi":6539,"Ġmand":6540,"adding":6541,"Ġ2000":6542,"ARD":6543,"organisation":6544,"norm":6545,"Ġ\"_":6546,"Ġ36":6547,"Ġpeine":6548,"ouvre":6549,"Ġaccueill":6550,"Ġconnaiss":6551,"\"{":6552,"report":6553,"moid":6554,"Ġdomicile":6555,"Ġgroupes":6556,"Ġproperties":6557,"59":6558,"Mo":6559,"vin":6560,"Ġlieux":6561,"ĠNon":6562,"Ġ33":6563,"avait":6564,"Ġarrive":6565,"Ã©can":6566,"Ġtwee":6567,"([\"":6568,"itesse":6569,"ĠContact":6570,"TreeClassifier":6571,"Ġtweepy":6572,"RES":6573,"cir":6574,"Ġcache":6575,"atch":6576,"ilos":6577,"intes":6578,"Ġsoi":6579,"128":6580,"ĠdÃ©velopper":6581,"ĠToken":6582,"Ġprofessionnelle":6583,"Pay":6584,"Url":6585,"dÃ©":6586,"Ġmobile":6587,"Ġev":6588,"veur":6589,"Ġcreated":6590,"ĠMarie":6591,"Ġpackage":6592,"SERT":6593,"Ġsang":6594,"orÃ©":6595,"Ġmas":6596,"ĠÃ©to":6597,"Ġintersection":6598,"ĠService":6599,"Ġprobability":6600,"cutive":6601,"ordinates":6602,"ĠrÃ©fÃ©rence":6603,"}/":6604,"ĠTÃ©lÃ©":6605,"Ġeau":6606,"cha":6607,"Ġsubject":6608,"volution":6609,"Ġequation":6610,"riv":6611,"Ã©tat":6612,"Ġconnu":6613,"ĠprÃ©cis":6614,"Ġraisons":6615,"Ġmig":6616,"ster":6617,"category":6618,"EXT":6619,"ĠÅĵuvre":6620,"]['":6621,"Ġed":6622,"ĠDoe":6623,"median":6624,"Ġclimat":6625,"Ġmodules":6626,"Ġessentiel":6627,"unicip":6628,"ias":6629,"Ġtels":6630,"plays":6631,"context":6632,"urrence":6633,"fitness":6634,"findall":6635,"Ġconcat":6636,"mark":6637,"Ġproposer":6638,"ensional":6639,"uppercase":6640,"ĠcompÃ©tences":6641,"hÃ´tel":6642,"omet":6643,"ĠPierre":6644,"Ġbonnes":6645,"Ġforte":6646,"Ġconcept":6647,"ĠOui":6648,"oose":6649,"Ġdates":6650,"Ġrester":6651,"ĠCopyright":6652,"Ġcoin":6653,"Ġmou":6654,"atement":6655,"Ġplac":6656,"riture":6657,"iscine":6658,"At":6659,"math":6660,"Ġfox":6661,"combin":6662,"Ġsoutien":6663,"connection":6664,"Ġcompagnie":6665,"CM":6666,"NO":6667,"xlabel":6668,"Ġdos":6669,"oubl":6670,"ĠRoy":6671,"Ġ75":6672,"Ġsubtract":6673,"ĠcommunautÃ©":6674,"Ġvalidation":6675,"Ġdirecteur":6676,"Ġdifference":6677,"ĠgÃ©nÃ©ralement":6678,"fetchall":6679,"person":6680,"Ġforum":6681,"Ġsoins":6682,"ouverte":6683,"Ġmembre":6684,"ras":6685,"Ġdialog":6686,"ĠtÃ¢":6687,"ĠmÃªmes":6688,"quÃ©e":6689,"ĠTu":6690,"Ã©der":6691,"Ġcoord":6692,"Ġfonctionnement":6693,"Ġsure":6694,"Ġnull":6695,"intern":6696,"Ġ((":6697,"ĠNot":6698,"ĠVis":6699,"Ã©tude":6700,"Ġoffres":6701,"Ġmultiples":6702,"Ġhauteur":6703,"ASE":6704,"\\\"":6705,"samples":6706,"ylabel":6707,"ouverture":6708,"itions":6709,"stat":6710,"ĠBase":6711,"oche":6712,"ĠOff":6713,"arry":6714,"Ġactuellement":6715,"Ġdistinct":6716,"Ġ2007":6717,"compound":6718,"----------------------------------------------------------------":6719,"ĠapprÃ©ci":6720,"Ġpaix":6721,"Ġdecision":6722,"ĠANY":6723,"ini":6724,"ĠCre":6725,"appy":6726,"Ġrencontres":6727,"Ġcontacter":6728,"ĠrÃ©duire":6729,"Ġrestaurant":6730,"ĠConnect":6731,"43":6732,"etÃ©":6733,"oder":6734,"Ġselection":6735,"Ġcontents":6736,"ĠAnn":6737,"Ġcourt":6738,"ivalent":6739,"Ġmariage":6740,"Che":6741,"erver":6742,"ĠRob":6743,"Ġtran":6744,"cluster":6745,"ĠDecision":6746,"Ġtests":6747,"Ġpermettra":6748,"Ġmercre":6749,"ĠdÃ©fense":6750,"Date":6751,"Pool":6752,"gel":6753,"rary":6754,"tod":6755,"Ġut":6756,"means":6757,"Ġparties":6758,"inputs":6759,"Ã¢tre":6760,"Ġfonds":6761,"uggest":6762,"Ġfaisant":6763,"Ġcampagne":6764,"Order":6765,"Ġcitoy":6766,"aitement":6767,"Ġuntil":6768,"prove":6769,"uding":6770,"ĠExample":6771,"Ġcalc":6772,"invest":6773,"PORT":6774,"tax":6775,"Ġcaf":6776,"Ġrent":6777,"Ã¨tement":6778,"verted":6779,"gramming":6780,"');":6781,"ched":6782,"ĠRewrite":6783,"INSERT":6784,"Ġpoly":6785,"Ġlivres":6786,"ĠtrouvÃ©":6787,"ka":6788,"eria":6789,"Ġfull":6790,"Ġmur":6791,"ĠreÃ§u":6792,"ameters":6793,"Ġ06":6794,"Ġ2006":6795,"lemagne":6796,"Ġcallback":6797,"ĠPredict":6798,"ĠINTO":6799,"ĠJavaScript":6800,"urtle":6801,"rÃªme":6802,"Ġdebug":6803,"ĠPRO":6804,"ftime":6805,"Ġconcerne":6806,"Ġenvoy":6807,"AU":6808,"MO":6809,"What":6810,"Ġreview":6811,"ĠFOR":6812,"ĠWAR":6813,"Ã´te":6814,"Ġconcours":6815,"ĠidÃ©e":6816,"Ġoccur":6817,"CCESS":6818,"rication":6819,"Ð½":6820,"Ġlois":6821,"astr":6822,"Ġreal":6823,"Ġsec":6824,"indust":6825,"...]":6826,"Ġconseill":6827,"ALUES":6828,"95":6829,"RNA":6830,"Ġcra":6831,"Ġfree":6832,"ĠfÃ©min":6833,"second":6834,"Ġguide":6835,"ĠcontrÃ´":6836,"importe":6837,",-":6838,"DA":6839,"SM":6840,"joint":6841,"Ġfrequencies":6842,"ested":6843,"Ġbro":6844,"ounds":6845,"attrs":6846,"ĠModify":6847,"ĠdÃ©clarÃ©":6848,"Att":6849,"ti":6850,"Ġdone":6851,"elcome":6852,"rais":6853,"Ġlaisse":6854,"ĠMs":6855,"contrib":6856,"erez":6857,"ĠopÃ©r":6858,"ĠmalgrÃ©":6859,"Ġmercredi":6860,"CL":6861,"Log":6862,"ualitÃ©":6863,"leg":6864,"Ġoe":6865,"ĠLou":6866,"ĠOF":6867,"prov":6868,"ĠentraÃ®":6869,"Ġmardi":6870,"Ġsalon":6871,"'}),":6872,"pository":6873,"Ġveux":6874,"Ġmilli":6875,"speed":6876,"ĠPhil":6877,"Ġfitness":6878,"Ġpsych":6879,"fn":6880,"kl":6881,"inet":6882,"Ġpipeline":6883,"Ġtre":6884,"itre":6885,"Ġmains":6886,"agÃ©":6887,"Ġprefix":6888,"ancÃ©":6889,"ĠReg":6890,"short":6891,"corpus":6892,"Ġgarde":6893,"Ġexists":6894,"currency":6895,"Il":6896,"dtype":6897,"iale":6898,"Ã©ros":6899,"Ġrepro":6900,"icol":6901,"uls":6902,"Ġros":6903,"ĠdÃ©cidÃ©":6904,"lectric":6905,"123":6906,"Ġoptimization":6907,"anguages":6908,"Auth":6909,"Ġprochaine":6910,"joute":6911,"Ġsources":6912,"isÃ©s":6913,"ĠTour":6914,"aises":6915,"peri":6916,"Ġsugg":6917,"------------":6918,"metadata":6919,"ĠStandard":6920,"ĠAll":6921,"dessous":6922,"tp":6923,"amour":6924,"Ġway":6925,"ĠGET":6926,"Ġdisposit":6927,"Ġcoeffic":6928,"Ġseconde":6929,"Ġ255":6930,"ĠeuropÃ©enne":6931,"ĠrÃ¨gles":6932,".',":6933,"84":6934,"mission":6935,"Ġsil":6936,"Ġreq":6937,"select":6938,"ĠPaul":6939,"Ġblo":6940,"ĠToute":6941,"Ġretra":6942,"Ġstream":6943,"Ġgene":6944,"Ġremaining":6945,"mac":6946,"non":6947,"Ġtab":6948,"imo":6949,"Ġstats":6950,"veux":6951,"mber":6952,"ĠDeux":6953,"...)":6954,"Ã¢ge":6955,"Ġdatasets":6956,"Ġdouce":6957,"stdout":6958,"CharField":6959,"Ġrecursive":6960,"Scaler":6961,"86":6962,"huile":6963,"esprit":6964,"ĠMTN":6965,"ainer":6966,"euros":6967,"ĠidÃ©es":6968,"ĠMaison":6969,"ĠmatÃ©riel":6970,"Ġpapier":6971,"ĠderriÃ¨re":6972,"ucket":6973,"Ġerrors":6974,"77":6975,"home":6976,"Ġpayer":6977,"ĠLun":6978,"employ":6979,"ĠrÃ©t":6980,"fection":6981,"Ġnote":6982,"Ġtechnologie":6983,"********":6984,"ĠmÃ©dias":6985,"ĠlibertÃ©":6986,"Authorization":6987,"54":6988,"Net":6989,"SI":6990,"Ġfalse":6991,"cepte":6992,"apes":6993,"Ã©cut":6994,"alisÃ©e":6995,"Ġposte":6996,"ĠdÃ©velopp":6997,"Ġign":6998,"ĠdÃ»":6999,"Ġ'<":7000,"Ġ08":7001,"ĠGÃ©n":7002,"Ġdisplays":7003,"2019":7004,"Ġsubstrings":7005,"Ġ{}'.":7006,"Ġutilisateurs":7007,"ĠÃ©quipes":7008,"Ġshortest":7009,"fait":7010,"full":7011,"Ġbanc":7012,"ĠCas":7013,"irus":7014,"ĠDr":7015,"()))":7016,"ĠStudent":7017,"Ġassurer":7018,"Ġrecycl":7019,"news":7020,"Ġinstallation":7021,"Ġparfait":7022,"ĠstratÃ©gie":7023,"ye":7024,"quit":7025,"Ġ01":7026,"cipe":7027,"ĠVALUES":7028,"phi":7029,"Ġsortir":7030,"ranche":7031,"Ġsignal":7032,"ĠtroisiÃ¨me":7033,"Ġprochain":7034,"::":7035,"Ġdoll":7036,"enus":7037,"Ġcard":7038,"Ġpeur":7039,"Ġconfir":7040,"Ġdevis":7041,"Ġdepth":7042,"Ġfournisse":7043,"uilt":7044,"Ġcartes":7045,"Ġpaiement":7046,"pace":7047,"environnement":7048,"Ġsrc":7049,"Ġtiss":7050,"Ġvas":7051,"ĠPers":7052,"ĠnumÃ©rique":7053,"ĠBook":7054,"ĠWord":7055,"volume":7056,"tweet":7057,"known":7058,"Call":7059,"France":7060,"ĠSam":7061,"Ġneighb":7062,"ĠaccÃ¨s":7063,"openapi":7064,"iÃ©s":7065,"Ñģ":7066,"Ġmam":7067,"Ġconception":7068,"\");":7069,"Ġadresse":7070,"Ġdiagnost":7071,"Ġtermes":7072,"starts":7073,"Ġofficiel":7074,"ĠrÃ©alisÃ©":7075,"_='":7076,"phe":7077,"ĠPoint":7078,"ĠPDF":7079,"ĠIns":7080,"Ġconsci":7081,"Ġinternational":7082,"Ġretrouv":7083,"armac":7084,"Ġphysique":7085,">'":7086,"UV":7087,"best":7088,"pa":7089,"ĠPrÃ©":7090,"strftime":7091,"aleurs":7092,"Ġrunning":7093,"Ġcommencer":7094,"ĠSoftware":7095,"Web":7096,"ende":7097,"ĠpÃ©t":7098,"Ġrelev":7099,"ĠForm":7100,"ĠUtil":7101,"Ġ65":7102,"control":7103,"ĠpremiÃ¨res":7104,"ĠrÃ©gime":7105,"As":7106,"Ġcelsius":7107,"entry":7108,"ĠmÃ¨tres":7109,"ĠCam":7110,"Ġpara":7111,"ĠVer":7112,"ALL":7113,"New":7114,"capital":7115,"gent":7116,"ennent":7117,"oring":7118,"otte":7119,"andis":7120,"ĠDem":7121,"ĠJul":7122,"And":7123,"?)":7124,"UE":7125,"sw":7126,"ĠdÃ©di":7127,"Ġconnaissance":7128,"Ġidx":7129,"Ġrisques":7130,"Ġdistributed":7131,"57":7132,"lÃł":7133,"png":7134,"Ġnatural":7135,"asket":7136,"Ġjeudi":7137,"Ġattend":7138,"Ġfacil":7139,"(_":7140,"38":7141,"kit":7142,"itut":7143,"Ġnorm":7144,"Ġwww":7145,"ouvrir":7146,"ĠProf":7147,"ĠpubliÃ©":7148,"/<":7149,"MENT":7150,"orange":7151,"ĠreÃ§":7152,"Ġ'\\":7153,"=='":7154,"plex":7155,"Ġpartager":7156,"ouvrez":7157,"Ġespace":7158,"ĠsoirÃ©e":7159,"ĠLorsque":7160,"ele":7161,"Ġparis":7162,"Ġdataframe":7163,"chemy":7164,"screen":7165,"âĢ¦]":7166,"Ġautomatique":7167,"Ġattribute":7168,"Ġtendance":7169,"enseignement":7170,"HomeDir":7171,"Conne":7172,"Ġpom":7173,"Ġmention":7174,"ĠÃ©dition":7175,"Ġvoie":7176,"suff":7177,"Ġutilise":7178,"ĠÃ©tudiants":7179,"Ġrich":7180,"ĠSans":7181,"ĠDim":7182,"allen":7183,"Ġrandomly":7184,"graphie":7185,"ualitÃ©s":7186,"Ġdomain":7187,"Ġoccup":7188,"Ġappropriate":7189,"uie":7190,"Ġdavantage":7191,"cteurs":7192,"Ġgal":7193,"Ġchang":7194,"ption":7195,"Ġappare":7196,"Ġattention":7197,"spec":7198,"Ġpenser":7199,"ĠMichel":7200,"GE":7201,"anie":7202,"Ġ\"--":7203,"Ġprop":7204,"()[":7205,"Ġsee":7206,"ivez":7207,"ĉĉĉĉĉ":7208,"preh":7209,"ĠsituÃ©":7210,"Ġculturel":7211,"apsack":7212,"Ġclose":7213,"Ġregex":7214,"ĠCH":7215,"Ġbefore":7216,"Ġcoeur":7217,"Ġrecr":7218,"Ġatel":7219,"ĠindÃ©p":7220,"tags":7221,"ĠvÃ©hicule":7222,"46":7223,"cv":7224,"Ġlic":7225,"association":7226,"Ġpla":7227,"consumer":7228,"ĠÃ©tudes":7229,"Ġcommerce":7230,"serve":7231,"ĠEtats":7232,"ologiques":7233,"ĠlÃ©gÃ¨re":7234,"Ġmondiale":7235,"Ġwritten":7236,"IV":7237,"Image":7238,"UCCESS":7239,"rÃ©es":7240,"uat":7241,"}}":7242,"Ġnord":7243,"ĠPal":7244,"Ġessay":7245,"Ġpartenaires":7246,"ha":7247,"eries":7248,"ĠGar":7249,"(\"%":7250,"avg":7251,"Ġweather":7252,"Ġfruits":7253,"Ġdurable":7254,"stderr":7255,"Ġstopwords":7256,"softmax":7257,"ĠRÃ©publique":7258,"Af":7259,"btn":7260,"urÃ©":7261,"imm":7262,"ĠTree":7263,"ĠSite":7264,"ĠMart":7265,"ĠFound":7266,"Ġsept":7267,"Ġsettings":7268,"Ġdistances":7269,"Ġview":7270,"ĠcrÃ©dit":7271,"Ġrelations":7272,"ĠcomplÃ©ment":7273,"Ġsusp":7274,"IX":7275,"onal":7276,"images":7277,"Ġvitesse":7278,"Ġball":7279,"ĠNouv":7280,"ocrat":7281,"ĠcarriÃ¨re":7282,"Ġperman":7283,"Ġparfaitement":7284,"zzle":7285,"Ġsuffis":7286,"ees":7287,"inois":7288,"Ġtelle":7289,"anim":7290,"usÃ©":7291,"ataire":7292,"ĠNord":7293,"ĠWHERE":7294,"ialize":7295,"alisme":7296,"Ġmanage":7297,"Ġfabric":7298,"exists":7299,"Sorted":7300,"avec":7301,"lon":7302,"ya":7303,"Ġpauv":7304,"ouvert":7305,"asure":7306,"ĠboÃ®":7307,"interface":7308,"Ġmeilleures":7309,"ĠmajoritÃ©":7310,"Ġke":7311,"analyse":7312,"heur":7313,"Ġsuffit":7314,">\\":7315,">',":7316,"ilan":7317,"Ġcompreh":7318,"periment":7319,"ĠMark":7320,"scription":7321,"Ġult":7322,"urant":7323,"ĠmÃ©can":7324,"rog":7325,"pren":7326,"Ġexit":7327,"Ġexig":7328,"Ġactive":7329,"Ġzones":7330,"emails":7331,"Ġdirige":7332,"ĠÃ©trang":7333,"Ġtrib":7334,"ramid":7335,"Ġobserv":7336,"ĠopÃ©ration":7337,"Ġspeed":7338,"Ġstarting":7339,"alindrom":7340,"tweets":7341,"ĠcÃ©lÃ¨":7342,"alpha":7343,"ĠSuggest":7344,"ague":7345,"cier":7346,"Ġobjectif":7347,"ĠbÃ©nÃ©ficier":7348,"56":7349,"puter":7350,"Ġautomat":7351,"Ġexclus":7352,"Word":7353,"google":7354,"mand":7355,"Ġutf":7356,"Ġreduce":7357,"pec":7358,"ĉĉĊ":7359,"Ġmarques":7360,"temperature":7361,"ĠElles":7362,"encoded":7363,"ĠAND":7364,"Ġframework":7365,"fun":7366,"oom":7367,"Ġpropres":7368,"ĠSE":7369,"ĠMad":7370,"()]":7371,"ĠthÃ¨me":7372,"('-":7373,"Ã©ries":7374,"ĠChaque":7375,"Ġacteurs":7376,"Reader":7377,"Ġsolid":7378,"utiliser":7379,"Ġpolice":7380,"Ġexplique":7381,"Ġitertools":7382,"Ġdessus":7383,"Accuracy":7384,"ĠTfidfVectorizer":7385,"IA":7386,"pk":7387,"Ġdr":7388,"irÃ©":7389,"Ġconserv":7390,"Ġcomprend":7391,"record":7392,"oitation":7393,"Ġgross":7394,"47":7395,"SA":7396,"cy":7397,"Ġmunicip":7398,"ĠCap":7399,"Ġcependant":7400,"php":7401,"Ġclin":7402,"***":7403,"ĠpossÃ¨de":7404,"Ġcouple":7405,"6733":7406,"ĠEmployee":7407,"signal":7408,"ĠFranÃ§ois":7409,"ĠWARRAN":7410,"ailed":7411,"cÃ©":7412,"ky":7413,"Ġpierre":7414,"ifies":7415,"ĠSub":7416,"medi":7417,"Ġsembl":7418,"Ġcontrol":7419,"moire":7420,"Ġshop":7421,"Ġ});":7422,"Ġmusic":7423,"Def":7424,"socket":7425,"Ġlu":7426,"Ġdevelop":7427,"Ã¨nes":7428,"dients":7429,"Ġtrou":7430,"exerc":7431,"Ġkeywords":7432,"Ãªtements":7433,"tasks":7434,"Means":7435,"HTTP":7436,"ĠdÃ©chets":7437,"ani":7438,"ano":7439,"Ġangle":7440,"plus":7441,"ĠAff":7442,"Ġ[âĢ¦]":7443,"expr":7444,"Ġmoderne":7445,"Ġconsac":7446,"cessed":7447,"ministration":7448,"details":7449,"Phone":7450,"NAME":7451,"MP":7452,"View":7453,"sleep":7454,"Ġpiscine":7455,"Ġcach":7456,"Ġfall":7457,"alth":7458,"unis":7459,"ĠSch":7460,"Ġconform":7461,"Ġha":7462,"Ġ07":7463,"collection":7464,"Ġeffets":7465,"Ġ---":7466,"jouter":7467,"nodes":7468,"Ã©di":7469,"Ġunit":7470,"Ġarm":7471,"ainte":7472,"Ã©tais":7473,"Ġpartage":7474,"2016":7475,"ĠrÃ©alisation":7476,"Ġregarder":7477,")*":7478,"PT":7479,"naire":7480,"Ã¨che":7481,"Ġjet":7482,"ĠDel":7483,"convert":7484,"Ġfinding":7485,"ĠcrÃ©Ã©":7486,"lustr":7487,"Ġpaths":7488,"Ġpatients":7489,"ĠcomplÃ¨te":7490,"ĠmÃ©tier":7491,"Ġplateforme":7492,"Ġbroyeur":7493,"sid":7494,"Ġsel":7495,"aliment":7496,"ĠFem":7497,"ĠĠĠĠĠĠĠĠĠĠĠĠĠĠĠĠĠĠĠĠĊ":7498,"airement":7499,"Ġclassique":7500,"Ã©gÃ©t":7501,"Ġpanne":7502,"ĠprotÃ©ger":7503,"Ġ{},":7504,"INT":7505,"Ġrecevoir":7506,"Ġfabrication":7507,"mazon":7508,"industrie":7509,"NN":7510,"inÃ©e":7511,"Ġsamples":7512,"istics":7513,"ivation":7514,"itecture":7515,"ĠName":7516,"ĠNote":7517,"Ġfaible":7518,"Ã©rÃ©e":7519,"Ġexpress":7520,"Ġpartout":7521,"Ġlettre":7522,"Ġlocaux":7523,"ĠprÃ©senter":7524,"Ġincluding":7525,"Ġinternationale":7526,":])":7527,"}\".":7528,"Â«":7529,"onds":7530,"Ġfou":7531,"Ġlazy":7532,"Ġunsorted":7533,"ĠAc":7534,"ĠclÃ©":7535,"Ġsummary":7536,"ĠInt":7537,"pool":7538,"Ã§ant":7539,"Ġaffich":7540,"Process":7541,"ĠmÃ©thode":7542,"Ġcloth":7543,"Ġparticiper":7544,"startswith":7545,"/\"":7546,"cb":7547,"pital":7548,"only":7549,"Ġtes":7550,"atrice":7551,"amel":7552,"ĠFab":7553,"avid":7554,"rowser":7555,"Ġquelqu":7556,"ĠNumber":7557,"ĠcatÃ©gorie":7558,"41":7559,"custom":7560,"pages":7561,"Ġaime":7562,"ively":7563,"irth":7564,"agent":7565,"ignÃ©":7566,"ĠarrÃªt":7567,"movies":7568,"setup":7569,"ĠURLs":7570,"Ġretrouve":7571,"DS":7572,"push":7573,"}'":7574,"ico":7575,"ĠDate":7576,"ĠMÃªme":7577,"emple":7578,"auff":7579,"texts":7580,"Ġminim":7581,"ĠStart":7582,"ĠsupÃ©rieur":7583,"desc":7584,"Ġpermutation":7585,"ĠClub":7586,"Ġindividual":7587,"Ġhabitants":7588,"Ġgratuite":7589,"ĠrÃ©flex":7590,"Check":7591,"?:":7592,"Pol":7593,"hors":7594,"neighbors":7595,"ĠrÃ©el":7596,"ground":7597,"Ġportes":7598,"Ġpouvons":7599,"Module":7600,"here":7601,"half":7602,"Ġdeme":7603,"ĠCalcul":7604,"comb":7605,"Ġoutre":7606,"iciels":7607,"Ġverre":7608,"Ġcontinuer":7609,"ĠdÃ©pend":7610,"Ġancien":7611,"Ġvideo":7612,"Ġdix":7613,"Ġait":7614,"ators":7615,"Ġvaleurs":7616,"Ġpoursu":7617,"Ġ[-":7618,"ĠGen":7619,"Ġ64":7620,"Ã©nom":7621,"Ġdiscr":7622,"Ġlogin":7623,"ĠresponsabilitÃ©":7624,"46733":7625,"lation":7626,"Ġtomb":7627,"unk":7628,"Ġ05":7629,"ĠIP":7630,"cide":7631,"clusters":7632,"\"].":7633,"ĠtempÃ©rature":7634,"squared":7635,"ĠtÃ©lÃ©v":7636,"Py":7637,"xion":7638,"itant":7639,"Ġmob":7640,"Ġbit":7641,"ĠAR":7642,"outer":7643,"exception":7644,"Ġperdu":7645,"ĠQui":7646,"Ġ150":7647,"Ġavantages":7648,"Child":7649,"affaires":7650,"denominator":7651,"AGE":7652,"Ġgratuitement":7653,"combinations":7654,"+'":7655,"FT":7656,"PRO":7657,"kyc":7658,"release":7659,"reviews":7660,"ouer":7661,"Ġisol":7662,"ĠInitial":7663,"ERR":7664,"ariat":7665,"255":7666,"USER":7667,"Ġnation":7668,"ĠGo":7669,"ĠRou":7670,"ĠsystÃ¨mes":7671,"Ġquantity":7672,"Ġsymbol":7673,"ĠagrÃ©able":7674,"Ġjurid":7675,"ÑĢ":7676,"Ġicon":7677,"ĠĠĠĠĠĊ":7678,"ĠCir":7679,"iennes":7680,"Ġparts":7681,"Ġradi":7682,"Ġarrays":7683,"Ġconnais":7684,"Ġagain":7685,"ĠTrÃ¨s":7686,"Ġcompter":7687,"download":7688,"gy":7689,"Ġagric":7690,"Ġbelles":7691,"plib":7692,"admin":7693,"ptr":7694,"moins":7695,"Ġkil":7696,"shuffle":7697,"lets":7698,"End":7699,"Ġfonctionne":7700,"Ġreceived":7701,"Apple":7702,"ĠcommencÃ©":7703,"Player":7704,"Ġsimilarity":7705,"lent":7706,"ĠpÃ©d":7707,"anoi":7708,"ivÃ©e":7709,"ocab":7710,"Ġsubst":7711,"Ġobjectifs":7712,"Ġcapable":7713,"Ġporter":7714,"Ġpatient":7715,"ĠspÃ©cial":7716,"Ġfournir":7717,"onomie":7718,"ham":7719,"iant":7720,"Ġmn":7721,"Ã¨tes":7722,"ĠrÃ©ussi":7723,"ientÃ´t":7724,"Ġterm":7725,"Ġprocessing":7726,"groups":7727,"ILITY":7728,"alphabet":7729,"ulent":7730,"ĠDo":7731,"Ġchart":7732,"ĠÃ©vent":7733,"ultes":7734,"Ġthrow":7735,"ĠStore":7736,"Ġparticular":7737,"docs":7738,"Ġstatut":7739,"Ġsuccessful":7740,"Ġcustomers":7741,"intÃ©rÃªt":7742,"Ġdollars":7743,"pour":7744,"Ġden":7745,"raine":7746,"Ġreviews":7747,"imeter":7748,"Ġ'))":7749,"Ġhier":7750,"peratures":7751,"Ġpreuve":7752,"Ġobjective":7753,"Ġconverts":7754,"Ġjoue":7755,"smallest":7756,"Ġordinateur":7757,"Body":7758,"Ġdang":7759,"Ġcube":7760,"arc":7761,"Ġinformat":7762,"ĠPuis":7763,"Ġtool":7764,"Ġexam":7765,"auto":7766,"aves":7767,"required":7768,"Ġsauv":7769,"ĠrÃ©guliÃ¨rement":7770,"generator":7771,"tit":7772,"Ġray":7773,"andbox":7774,"Ġplantes":7775,"ĠdÃ©tails":7776,"Ġasync":7777,"Ġ48":7778,"Ġcompat":7779,"ĠdÃ©faut":7780,"offre":7781,"Ġgarder":7782,"CG":7783,"Java":7784,"Up":7785,"english":7786,"ĠbÃ©b":7787,"adresse":7788,"Ġclair":7789,"rÃ©al":7790,"Ġtotalement":7791,"Ġvision":7792,"Ġoptimal":7793,"ĠreprÃ©sente":7794,"character":7795,"ĠvidÃ©os":7796,")])":7797,"Ġ^":7798,"regex":7799,"ĠTHE":7800,"Ġcontexte":7801,"ĠRest":7802,"Ãªter":7803,"Ġtrace":7804,"Ġ42":7805,"Ġ*=":7806,"Ġfilles":7807,"Ġtableau":7808,"ITE":7809,"ĠĠĠĠĠĠĠĠĠĠĠĠĠĠĠĠĠĠĠĠĠĠĠĠĠĠĠĠĠĠĠĠĠĠ":7810,"Sequential":7811,"ĠrÃ©duction":7812,"Ġlutte":7813,"sigmoid":7814,"sec":7815,"Ġonline":7816,"ĠAvant":7817,"PR":7818,"rea":7819,"Ġliqu":7820,"intÃ©gr":7821,"pload":7822,"ĠĠĠĠĠĠĠĠĠĠĠĠĠĠĠĠĠĠĠĠ":7823,"Ind":7824,"Ġoffrir":7825,"Ġsomme":7826,"ĠcaractÃ¨re":7827,"Ġfichiers":7828,"ĠDÃ©couvrez":7829,"pas":7830,"esar":7831,"alg":7832,"chest":7833,"portun":7834,"Ġ[...]":7835,"Ġfaite":7836,"owel":7837,"exc":7838,"Ġspace":7839,"avez":7840,"uves":7841,"ASS":7842,"Ġcombat":7843,"Ġengine":7844,"ĠcinÃ©ma":7845,".\",":7846,"=%":7847,"iÃ©e":7848,"oft":7849,"wa":7850,"Ġvilles":7851,"Ġryth":7852,"Ġtoile":7853,"isson":7854,"posÃ©":7855,"ĠentiÃ¨rement":7856,"ĠdiffÃ©rence":7857,"Ġtokenize":7858,"Ġdivisor":7859,"Sm":7860,"sa":7861,"Ġgagn":7862,"Ġallem":7863,"ĠÃ©tude":7864,"ĠRecher":7865,"Ġnouvel":7866,"Ãītat":7867,"Ġexpert":7868,"bed":7869,"Ġsche":7870,"ogique":7871,"Ġmini":7872,"Ã´mes":7873,"Ġ??":7874,"icielle":7875,"Ġgradient":7876,"All":7877,"ĠgoÃ»t":7878,"register":7879,"pad":7880,"ĠPo":7881,"three":7882,"ĠBo":7883,"ĠRuss":7884,"ponents":7885,"Ġentier":7886,"alisÃ©s":7887,"=\"\")":7888,"Ġsmart":7889,"Ġtrouverez":7890,"Ġstatement":7891,"Be":7892,"Total":7893,"YZ":7894,"fect":7895,"isent":7896,"Ġthird":7897,"Ġneeded":7898,"aude":7899,"appar":7900,"ĠArgs":7901,"Ġmultipl":7902,"Ġprovo":7903,"gene":7904,"hÃ©sitez":7905,"Ġgreatest":7906,"\\\\":7907,"hÃ©r":7908,"ĠPass":7909,"Ġbain":7910,"Ġlav":7911,"abb":7912,"Ġcond":7913,"autor":7914,"Ġmovies":7915,"ridge":7916,"jection":7917,"ĠGrÃ¢ce":7918,"Ã©conomie":7919,"Pos":7920,"UD":7921,"Ġ],":7922,"isher":7923,"ĠfÃ©d":7924,"ĠPL":7925,"orts":7926,"assurer":7927,"ĠVi":7928,"onnÃ©":7929,"Ġlogement":7930,"Ġprincipe":7931,"ĠtÃ©lÃ©charger":7932,"(.*":7933,"Random":7934,"Table":7935,"card":7936,"Ġtandis":7937,"ĠĠĠĠĠĠĠĠĠĠĠĠĠĠĠĠĠĠĠĠĠ":7938,"ailles":7939,"obt":7940,"Ġperte":7941,"Ã©nagement":7942,"paths":7943,"ĠStack":7944,"Ġturn":7945,"Ġctx":7946,"ulÃ©":7947,"Ġwebpage":7948,"Numbers":7949,"uffer":7950,"Ġcalculator":7951,"ÂłÂłÂłÂł":7952,"ĠCompile":7953,"Ġnormalize":7954,"based":7955,"ĠmÃ©decin":7956,"Ġperdre":7957,"ĠDecisionTreeClassifier":7958,"Ġthese":7959,"Ġfinalement":7960,"structions":7961,"Ġindis":7962,"Ġfabri":7963,"Ġrepas":7964,"Ġmagasin":7965,"Ġlour":7966,"Ġcle":7967,"Ġmac":7968,"thread":7969,"ĠMER":7970,"Ġami":7971,"Ã©volution":7972,"Ġyears":7973,"PUT":7974,"Ġlater":7975,"Ġfera":7976,"Ġdesired":7977,"Ġjoin":7978,"loir":7979,"ĠGa":7980,"Ġfaute":7981,"Ã©riment":7982,"Ã©tabl":7983,"2018":7984,"cols":7985,"ĠÃ©vo":7986,"Ġpublics":7987,"Ġcombination":7988,"Ġfigure":7989,"[['":7990,"gpu":7991,"onction":7992,"rev":7993,"ĠCSV":7994,"Ġformes":7995,"Ġ##":7996,"')]":7997,"])):":7998,"ials":7999}